#include <cstdint>
#include "mlp_int8_model_data.h"

const unsigned int g_mlp_int8_model_data_size = 38912;

alignas(16) const unsigned char g_mlp_int8_model_data[] = {
  0x20, 0x00, 0x00, 0x00, 0x54, 0x46, 0x4c, 0x33, 0x00, 0x00, 0x00, 0x00,
  0x14, 0x00, 0x20, 0x00, 0x1c, 0x00, 0x18, 0x00, 0x14, 0x00, 0x10, 0x00,
  0x0c, 0x00, 0x00, 0x00, 0x08, 0x00, 0x04, 0x00, 0x14, 0x00, 0x00, 0x00,
  0x1c, 0x00, 0x00, 0x00, 0x94, 0x00, 0x00, 0x00, 0x14, 0x01, 0x00, 0x00,
  0x9c, 0x0c, 0x00, 0x00, 0xac, 0x0c, 0x00, 0x00, 0x18, 0x18, 0x00, 0x00,
  0x03, 0x00, 0x00, 0x00, 0x01, 0x00, 0x00, 0x00, 0x10, 0x00, 0x00, 0x00,
  0x00, 0x00, 0x0a, 0x00, 0x10, 0x00, 0x0c, 0x00, 0x08, 0x00, 0x04, 0x00,
  0x0a, 0x00, 0x00, 0x00, 0x0c, 0x00, 0x00, 0x00, 0x1c, 0x00, 0x00, 0x00,
  0x3c, 0x00, 0x00, 0x00, 0x0f, 0x00, 0x00, 0x00, 0x73, 0x65, 0x72, 0x76,
  0x69, 0x6e, 0x67, 0x5f, 0x64, 0x65, 0x66, 0x61, 0x75, 0x6c, 0x74, 0x00,
  0x01, 0x00, 0x00, 0x00, 0x04, 0x00, 0x00, 0x00, 0x6c, 0xff, 0xff, 0xff,
  0x0a, 0x00, 0x00, 0x00, 0x04, 0x00, 0x00, 0x00, 0x08, 0x00, 0x00, 0x00,
  0x6f, 0x75, 0x74, 0x70, 0x75, 0x74, 0x5f, 0x30, 0x00, 0x00, 0x00, 0x00,
  0x01, 0x00, 0x00, 0x00, 0x04, 0x00, 0x00, 0x00, 0x4a, 0xf3, 0xff, 0xff,
  0x04, 0x00, 0x00, 0x00, 0x0b, 0x00, 0x00, 0x00, 0x69, 0x6e, 0x70, 0x75,
  0x74, 0x5f, 0x6c, 0x61, 0x79, 0x65, 0x72, 0x00, 0x03, 0x00, 0x00, 0x00,
  0x5c, 0x00, 0x00, 0x00, 0x2c, 0x00, 0x00, 0x00, 0x04, 0x00, 0x00, 0x00,
  0xb8, 0xff, 0xff, 0xff, 0x0e, 0x00, 0x00, 0x00, 0x04, 0x00, 0x00, 0x00,
  0x13, 0x00, 0x00, 0x00, 0x43, 0x4f, 0x4e, 0x56, 0x45, 0x52, 0x53, 0x49,
  0x4f, 0x4e, 0x5f, 0x4d, 0x45, 0x54, 0x41, 0x44, 0x41, 0x54, 0x41, 0x00,
  0xdc, 0xff, 0xff, 0xff, 0x0d, 0x00, 0x00, 0x00, 0x04, 0x00, 0x00, 0x00,
  0x13, 0x00, 0x00, 0x00, 0x6d, 0x69, 0x6e, 0x5f, 0x72, 0x75, 0x6e, 0x74,
  0x69, 0x6d, 0x65, 0x5f, 0x76, 0x65, 0x72, 0x73, 0x69, 0x6f, 0x6e, 0x00,
  0x08, 0x00, 0x0c, 0x00, 0x08, 0x00, 0x04, 0x00, 0x08, 0x00, 0x00, 0x00,
  0x0c, 0x00, 0x00, 0x00, 0x04, 0x00, 0x00, 0x00, 0x13, 0x00, 0x00, 0x00,
  0x6d, 0x69, 0x6e, 0x5f, 0x72, 0x75, 0x6e, 0x74, 0x69, 0x6d, 0x65, 0x5f,
  0x76, 0x65, 0x72, 0x73, 0x69, 0x6f, 0x6e, 0x00, 0x0f, 0x00, 0x00, 0x00,
  0x84, 0x0b, 0x00, 0x00, 0x7c, 0x0b, 0x00, 0x00, 0x64, 0x0b, 0x00, 0x00,
  0x34, 0x0b, 0x00, 0x00, 0xe4, 0x0a, 0x00, 0x00, 0xd4, 0x08, 0x00, 0x00,
  0x44, 0x08, 0x00, 0x00, 0xd4, 0x00, 0x00, 0x00, 0xcc, 0x00, 0x00, 0x00,
  0xc4, 0x00, 0x00, 0x00, 0xbc, 0x00, 0x00, 0x00, 0xb4, 0x00, 0x00, 0x00,
  0x94, 0x00, 0x00, 0x00, 0x74, 0x00, 0x00, 0x00, 0x04, 0x00, 0x00, 0x00,
  0x26, 0xf4, 0xff, 0xff, 0x04, 0x00, 0x00, 0x00, 0x60, 0x00, 0x00, 0x00,
  0x0c, 0x00, 0x00, 0x00, 0x08, 0x00, 0x0e, 0x00, 0x08, 0x00, 0x04, 0x00,
  0x08, 0x00, 0x00, 0x00, 0x10, 0x00, 0x00, 0x00, 0x28, 0x00, 0x00, 0x00,
  0x00, 0x00, 0x06, 0x00, 0x08, 0x00, 0x04, 0x00, 0x06, 0x00, 0x00, 0x00,
  0x04, 0x00, 0x00, 0x00, 0x01, 0x00, 0x00, 0x00, 0xeb, 0x03, 0x00, 0x00,
  0x0c, 0x00, 0x18, 0x00, 0x14, 0x00, 0x10, 0x00, 0x0c, 0x00, 0x04, 0x00,
  0x0c, 0x00, 0x00, 0x00, 0xed, 0xc7, 0x91, 0x60, 0x65, 0x2c, 0xf4, 0xda,
  0x02, 0x00, 0x00, 0x00, 0x02, 0x00, 0x00, 0x00, 0x04, 0x00, 0x00, 0x00,
  0x06, 0x00, 0x00, 0x00, 0x32, 0x2e, 0x31, 0x39, 0x2e, 0x30, 0x00, 0x00,
  0x92, 0xf4, 0xff, 0xff, 0x04, 0x00, 0x00, 0x00, 0x10, 0x00, 0x00, 0x00,
  0x00, 0x00, 0x00, 0x00, 0x00, 0x00, 0x00, 0x00, 0x00, 0x00, 0x00, 0x00,
  0x00, 0x00, 0x00, 0x00, 0xae, 0xf4, 0xff, 0xff, 0x04, 0x00, 0x00, 0x00,
  0x10, 0x00, 0x00, 0x00, 0x31, 0x2e, 0x31, 0x34, 0x2e, 0x30, 0x00, 0x00,
  0x00, 0x00, 0x00, 0x00, 0x00, 0x00, 0x00, 0x00, 0x98, 0xf4, 0xff, 0xff,
  0x9c, 0xf4, 0xff, 0xff, 0xa0, 0xf4, 0xff, 0xff, 0xa4, 0xf4, 0xff, 0xff,
  0xda, 0xf4, 0xff, 0xff, 0x04, 0x00, 0x00, 0x00, 0x60, 0x07, 0x00, 0x00,
  0xe4, 0xf5, 0xee, 0x0f, 0xf1, 0x07, 0x2f, 0xf3, 0x16, 0x39, 0x1b, 0xf4,
  0x24, 0x1e, 0x3e, 0x11, 0x1c, 0xf0, 0x20, 0x4c, 0x0b, 0x24, 0x13, 0x3f,
  0x00, 0xd8, 0x12, 0x2d, 0x22, 0x47, 0x48, 0x18, 0x18, 0xce, 0x0e, 0x20,
  0xee, 0x2f, 0xc9, 0x10, 0xc9, 0xf3, 0x1f, 0x21, 0xd2, 0x2f, 0x81, 0xea,
  0x00, 0x5e, 0x2d, 0xe1, 0x25, 0x11, 0x23, 0x2d, 0xfc, 0x1e, 0xca, 0x8d,
  0x6e, 0xe7, 0xd7, 0x24, 0x12, 0xdf, 0x8e, 0x6b, 0xab, 0x2c, 0xfd, 0x2d,
  0xcc, 0x46, 0x1d, 0x79, 0x35, 0xf5, 0x40, 0x73, 0x34, 0xf8, 0xc8, 0x6c,
  0xbc, 0x9a, 0xf6, 0x44, 0x4d, 0xd1, 0x64, 0xe2, 0xdf, 0xb3, 0x1b, 0x1e,
  0xb9, 0xbf, 0xc1, 0x81, 0x04, 0x40, 0x26, 0xe8, 0x3c, 0x22, 0xdc, 0xc6,
  0xff, 0xb2, 0x48, 0x3f, 0x7f, 0x33, 0x2a, 0x10, 0xf5, 0x5e, 0x11, 0x11,
  0xd6, 0xcf, 0x1f, 0xef, 0x40, 0x66, 0x28, 0xed, 0x0a, 0xdf, 0xf1, 0xed,
  0x2e, 0xdc, 0x12, 0x1a, 0x1f, 0xf9, 0xee, 0x07, 0xd6, 0xfa, 0x08, 0xda,
  0xdd, 0xec, 0xc1, 0x19, 0x61, 0xe7, 0x31, 0x15, 0xf8, 0xe9, 0xf7, 0x07,
  0xc9, 0xf2, 0xde, 0x07, 0x14, 0xc9, 0xf1, 0xe5, 0xb3, 0x09, 0xcf, 0x7f,
  0x12, 0x06, 0x08, 0xd5, 0xc6, 0x24, 0xe6, 0xa5, 0xc6, 0x39, 0xc3, 0xc6,
  0xd0, 0xfd, 0x22, 0xff, 0xbb, 0x0c, 0x11, 0x12, 0x1b, 0x2a, 0x0e, 0xbf,
  0x12, 0x1f, 0xc5, 0xbd, 0xcf, 0xf4, 0x45, 0x34, 0xfc, 0x1e, 0x27, 0x3a,
  0x0a, 0x3b, 0xbb, 0x95, 0x34, 0xe3, 0x0b, 0xb4, 0xd2, 0x43, 0x19, 0x01,
  0x18, 0xc8, 0x1f, 0x09, 0xfc, 0xde, 0x4a, 0x7f, 0xed, 0x3d, 0x15, 0xf8,
  0xdf, 0xcd, 0xe0, 0x46, 0xfa, 0xf4, 0xff, 0x27, 0xd2, 0xd1, 0x31, 0x13,
  0x27, 0xee, 0xbf, 0xc7, 0xea, 0x10, 0x06, 0x13, 0x09, 0xe8, 0xf0, 0xca,
  0xf1, 0xe8, 0x35, 0xd7, 0x02, 0xce, 0xc4, 0xdf, 0xd9, 0xc5, 0xdc, 0x14,
  0xe3, 0xef, 0x81, 0x0b, 0xf9, 0x4e, 0x0f, 0xd3, 0xc9, 0xfc, 0x29, 0xed,
  0xf8, 0x17, 0xd6, 0x37, 0x2e, 0x40, 0x42, 0x16, 0x21, 0xeb, 0x3b, 0xbe,
  0x0b, 0xc8, 0x56, 0xe5, 0x4b, 0x42, 0x0e, 0x9f, 0x9f, 0x62, 0x9c, 0xf9,
  0xf0, 0xa6, 0xbc, 0x40, 0xe1, 0xad, 0x2e, 0xe1, 0xa6, 0x21, 0x0f, 0xaf,
  0xe4, 0xad, 0xe6, 0xc4, 0xd6, 0xba, 0x64, 0xcf, 0x92, 0x42, 0x01, 0xc5,
  0x29, 0x17, 0xdd, 0x7f, 0x11, 0x33, 0x72, 0x5c, 0x4a, 0x53, 0xeb, 0x0f,
  0x5c, 0xda, 0x31, 0x2b, 0x6f, 0x31, 0xde, 0x58, 0x45, 0x22, 0x50, 0xbb,
  0x96, 0x71, 0x50, 0xb2, 0x13, 0xd7, 0x39, 0xfa, 0xd0, 0xfd, 0xfb, 0xe2,
  0x0c, 0x81, 0x01, 0xdc, 0x51, 0xfa, 0x03, 0x20, 0x11, 0xc4, 0xf0, 0x24,
  0xde, 0x21, 0xce, 0x44, 0x08, 0xc4, 0x2a, 0xff, 0x35, 0x07, 0x20, 0xb5,
  0xd3, 0xbf, 0xd3, 0xd2, 0xd9, 0xe5, 0xbb, 0x33, 0x1d, 0xaa, 0x16, 0xeb,
  0xf5, 0xbb, 0x03, 0xc5, 0x53, 0x37, 0xfe, 0xb5, 0x28, 0x4d, 0x26, 0xb3,
  0x01, 0x18, 0xa8, 0x0c, 0xfd, 0xbc, 0xe5, 0xda, 0xc8, 0xb7, 0x19, 0xd4,
  0x2b, 0xfd, 0x58, 0x3d, 0xcb, 0x29, 0xad, 0xa7, 0xee, 0x2a, 0x48, 0x41,
  0xd7, 0xbe, 0x0a, 0x18, 0x1a, 0xff, 0x35, 0xbc, 0x9c, 0xcc, 0x0d, 0x7f,
  0xbb, 0xd8, 0xef, 0x37, 0xda, 0xf7, 0x95, 0x84, 0xd4, 0xda, 0x0f, 0x54,
  0xe9, 0x1d, 0x4b, 0x21, 0x0a, 0x8f, 0x29, 0xd4, 0xe0, 0xbf, 0x37, 0x17,
  0xcc, 0x2d, 0x0d, 0x0e, 0xc9, 0x14, 0xc9, 0xe6, 0xc2, 0x19, 0xd2, 0x39,
  0xe9, 0xe4, 0xe4, 0xcb, 0x58, 0xe6, 0x4e, 0x7f, 0x5b, 0x4c, 0x0e, 0x3c,
  0x45, 0x36, 0x9d, 0x1f, 0xb5, 0xf0, 0xdd, 0x1f, 0xea, 0xef, 0x49, 0xc4,
  0x10, 0x5e, 0xc8, 0xd0, 0x32, 0xe6, 0xf4, 0xcf, 0x07, 0x49, 0xb4, 0xb9,
  0xc2, 0x18, 0xdc, 0xde, 0xd1, 0xea, 0x11, 0xf1, 0x09, 0xad, 0xde, 0xdb,
  0xed, 0x33, 0xe7, 0x1a, 0x7f, 0x5e, 0xe3, 0x50, 0xdb, 0xf0, 0x2d, 0xab,
  0xb6, 0xd3, 0xbe, 0xb9, 0xf7, 0x44, 0xdf, 0x23, 0xbf, 0x28, 0xb6, 0x29,
  0x13, 0x1d, 0xc8, 0x69, 0xce, 0x25, 0xd8, 0x04, 0xae, 0x71, 0x13, 0x9c,
  0x3a, 0xed, 0xe4, 0x37, 0x86, 0x37, 0x4f, 0xf0, 0xf3, 0xd5, 0x00, 0x1c,
  0x54, 0xb7, 0xf8, 0xe9, 0xc9, 0x21, 0x37, 0xb5, 0x93, 0x69, 0xc6, 0xa2,
  0x74, 0x34, 0x2d, 0xfb, 0xaf, 0x49, 0x37, 0xe6, 0x4a, 0xd9, 0x1d, 0x4c,
  0xa1, 0x49, 0xbd, 0x87, 0x40, 0x91, 0x7f, 0xbf, 0xd2, 0xee, 0x6a, 0x5a,
  0xbb, 0x6b, 0xfb, 0xd0, 0x37, 0x9a, 0x8a, 0xfa, 0x3b, 0x45, 0x5f, 0xd3,
  0x0c, 0x2d, 0x28, 0xd6, 0x2a, 0x01, 0x36, 0x75, 0x8e, 0x31, 0xda, 0x66,
  0xbd, 0x94, 0xbf, 0x95, 0x71, 0x25, 0x4c, 0x5b, 0xde, 0x66, 0xbf, 0x59,
  0xf1, 0x58, 0xc7, 0xd5, 0x08, 0x4b, 0x2a, 0x28, 0xec, 0x45, 0x91, 0x4b,
  0x22, 0x12, 0xda, 0x81, 0xd2, 0xc5, 0xb9, 0x2a, 0x6b, 0x4b, 0x53, 0xf5,
  0x2b, 0x0d, 0xaf, 0x4a, 0x64, 0xf9, 0x36, 0xc8, 0x29, 0xbd, 0x16, 0xdd,
  0x55, 0x24, 0x91, 0x18, 0xe2, 0xe7, 0x03, 0xd7, 0xb5, 0x33, 0x44, 0x9e,
  0x00, 0x1d, 0xdd, 0x9e, 0x19, 0xba, 0xb8, 0x12, 0xe5, 0xc8, 0xc7, 0x4a,
  0xfd, 0xf5, 0xe5, 0x1a, 0xfb, 0xeb, 0x0c, 0xeb, 0xaa, 0x21, 0xcd, 0x15,
  0xca, 0xf6, 0x09, 0xe7, 0xc4, 0xba, 0x3c, 0x5b, 0x2f, 0x26, 0x9a, 0xe6,
  0xf1, 0x26, 0xe6, 0x11, 0x58, 0x0c, 0x58, 0xa3, 0xf5, 0x2a, 0xeb, 0xbf,
  0xfd, 0xf9, 0xd1, 0x2c, 0x1e, 0x41, 0xf8, 0x24, 0x25, 0xf0, 0x81, 0xf1,
  0xc5, 0x0b, 0xfb, 0x31, 0xc7, 0xdf, 0xe4, 0x35, 0xe7, 0xc4, 0xdc, 0xbb,
  0x5d, 0xde, 0xe5, 0x36, 0x48, 0xfd, 0x92, 0x11, 0xb4, 0xdd, 0xed, 0xd7,
  0x48, 0xf0, 0xea, 0xe8, 0x00, 0xf6, 0x44, 0xe7, 0x1f, 0x3c, 0xdc, 0x0d,
  0xee, 0x0b, 0x1c, 0xf9, 0xa4, 0x81, 0xaa, 0x26, 0xa3, 0x19, 0x27, 0xe4,
  0x02, 0x31, 0xdc, 0x1b, 0x4d, 0x46, 0xf1, 0xa6, 0x00, 0xf9, 0x4f, 0x4a,
  0xeb, 0xb8, 0x36, 0x4f, 0x39, 0xf8, 0xe2, 0xc7, 0xfb, 0xae, 0xd3, 0x20,
  0x29, 0xf5, 0x18, 0xf5, 0x12, 0x97, 0xe9, 0x37, 0x38, 0xff, 0x13, 0xf4,
  0x1a, 0xf3, 0x3d, 0x09, 0x0f, 0xce, 0xf4, 0xec, 0xed, 0x0b, 0x0e, 0xe8,
  0xfc, 0x05, 0xf6, 0xe1, 0x8a, 0xdf, 0xd6, 0x20, 0x2c, 0xee, 0xec, 0xd2,
  0x08, 0xfe, 0xc3, 0xfe, 0x2a, 0x18, 0xd1, 0x42, 0x7f, 0xc6, 0x18, 0x87,
  0x12, 0xdb, 0x0e, 0x24, 0x29, 0x0c, 0x51, 0x2d, 0x38, 0x91, 0xe4, 0xf8,
  0x45, 0xfb, 0x5f, 0xd0, 0x51, 0xcb, 0x1c, 0xc3, 0xd7, 0x43, 0xe7, 0x0a,
  0x11, 0xd6, 0x23, 0xc2, 0xcf, 0xbf, 0x1b, 0x62, 0x02, 0x0a, 0x1d, 0x3e,
  0x08, 0xd4, 0xb0, 0x7f, 0x4b, 0x07, 0xc8, 0x12, 0xab, 0x28, 0x14, 0x5d,
  0x16, 0x3b, 0x34, 0xc8, 0xc8, 0x19, 0xf9, 0xb0, 0x12, 0x11, 0x53, 0xfc,
  0x24, 0x2d, 0xa2, 0xfa, 0xc7, 0xe4, 0x23, 0xed, 0xd4, 0x2c, 0x33, 0x07,
  0x34, 0xd2, 0x2a, 0x3a, 0x23, 0x0e, 0x18, 0xe9, 0xd1, 0x43, 0xcc, 0x0b,
  0xee, 0xeb, 0xfe, 0xe1, 0x18, 0x41, 0x16, 0xfc, 0xf2, 0x10, 0xed, 0xd2,
  0xfc, 0x1f, 0x63, 0x3c, 0x1d, 0x0d, 0xe8, 0xf3, 0xe8, 0x02, 0xfb, 0xf0,
  0xe1, 0x05, 0xf9, 0x3e, 0xf4, 0x12, 0x81, 0xdf, 0xb9, 0x17, 0xd6, 0xad,
  0xca, 0xfc, 0xf2, 0xdd, 0xbd, 0xcb, 0xc5, 0x18, 0xe9, 0x39, 0xe7, 0xdd,
  0x3a, 0x22, 0x7f, 0x11, 0xdd, 0xec, 0xcc, 0x32, 0x59, 0xcb, 0xfd, 0xfc,
  0x14, 0xdb, 0xdb, 0xb4, 0xff, 0xc3, 0x10, 0x37, 0xfe, 0xdf, 0x5c, 0xde,
  0x59, 0x60, 0xce, 0xc8, 0x33, 0xdb, 0x27, 0xf3, 0xb1, 0x26, 0xea, 0xf3,
  0x42, 0x3f, 0x0c, 0x24, 0x25, 0x3f, 0xf4, 0xca, 0x75, 0x33, 0x1f, 0x0a,
  0xb3, 0xed, 0x06, 0x4b, 0x88, 0x23, 0xcd, 0x0c, 0xdc, 0x3c, 0x0c, 0x2a,
  0x0f, 0xa9, 0x13, 0x29, 0xda, 0x9a, 0x07, 0xb3, 0x81, 0x65, 0x44, 0x39,
  0x3c, 0xaa, 0xbe, 0x3d, 0x0e, 0xd1, 0x24, 0xd9, 0xb4, 0xb0, 0xb8, 0x32,
  0x3b, 0xee, 0x3f, 0xcd, 0x05, 0x46, 0x4a, 0x36, 0x35, 0x5a, 0xaf, 0x32,
  0xef, 0x22, 0x16, 0xe4, 0xba, 0xf4, 0xb1, 0xe3, 0x2e, 0xb9, 0x1f, 0xd4,
  0xfd, 0x36, 0xf5, 0xd7, 0x09, 0xf1, 0xcd, 0xfc, 0xca, 0xe8, 0xd2, 0xe7,
  0x94, 0x66, 0x3c, 0x0c, 0xce, 0x12, 0x01, 0x17, 0xca, 0x32, 0x27, 0x4a,
  0x98, 0xac, 0x47, 0x36, 0x2a, 0x25, 0x2f, 0x5e, 0x12, 0x33, 0xfa, 0x81,
  0x14, 0xf2, 0x76, 0x6d, 0xf7, 0xd7, 0x4f, 0x8c, 0xd3, 0x5a, 0x3d, 0x9c,
  0x4e, 0x11, 0xc6, 0x19, 0xf3, 0x28, 0xf5, 0xed, 0x7b, 0x31, 0x76, 0x51,
  0x2d, 0x2d, 0xd2, 0xe8, 0xcd, 0x26, 0xc4, 0x41, 0xdd, 0xe6, 0xa9, 0x33,
  0x8c, 0x4c, 0xf1, 0x40, 0xe9, 0x34, 0x37, 0x3f, 0xe6, 0x1e, 0xef, 0x4c,
  0x58, 0x3a, 0xae, 0x03, 0xdc, 0x68, 0x52, 0xb8, 0xe0, 0x41, 0x37, 0x86,
  0x32, 0x14, 0x36, 0x2a, 0x22, 0xff, 0x45, 0xd5, 0xcc, 0xf7, 0x30, 0x4f,
  0x17, 0x7d, 0xbf, 0x1c, 0xd2, 0x81, 0x13, 0x62, 0xd4, 0xe2, 0x77, 0xb2,
  0x24, 0x27, 0x5a, 0x13, 0xe4, 0x05, 0x3e, 0x16, 0xfd, 0x00, 0x7f, 0xfa,
  0xe3, 0xf9, 0x01, 0x09, 0xa0, 0x1d, 0xa9, 0xe7, 0x0c, 0x3e, 0x44, 0x17,
  0xd1, 0x05, 0xde, 0xf8, 0x27, 0xe9, 0x18, 0x2c, 0x41, 0x36, 0x1f, 0x09,
  0xd8, 0x3a, 0xd9, 0x16, 0xcb, 0x2b, 0xc1, 0xbc, 0x1c, 0x40, 0x29, 0xf7,
  0xf9, 0xc1, 0xfb, 0xf2, 0x0e, 0xaf, 0x41, 0x25, 0xd9, 0xe8, 0x23, 0x1c,
  0xe8, 0xef, 0xf0, 0x11, 0xf5, 0xf8, 0x2d, 0x3c, 0x0e, 0x1e, 0xab, 0xad,
  0x57, 0x47, 0x34, 0x64, 0xfa, 0x4e, 0x13, 0x03, 0x41, 0xee, 0xf9, 0xaf,
  0x1c, 0x00, 0x0d, 0xbe, 0xec, 0x06, 0x07, 0x4b, 0x3a, 0xe8, 0x12, 0x5e,
  0x02, 0x44, 0x0a, 0x5c, 0xfc, 0x57, 0x36, 0x06, 0x44, 0x2b, 0x08, 0xbc,
  0x8b, 0xeb, 0x81, 0xa8, 0x11, 0xfd, 0x32, 0x9f, 0xc2, 0x2e, 0x24, 0xa2,
  0xe5, 0xee, 0xd4, 0x25, 0x36, 0x15, 0xc1, 0x45, 0x65, 0x24, 0xf0, 0x1b,
  0xde, 0xfc, 0x0b, 0xc6, 0xc4, 0x1f, 0xe4, 0x16, 0x56, 0xb4, 0xdc, 0x0e,
  0xdd, 0xdd, 0x1b, 0xe8, 0x12, 0xe8, 0x21, 0x4c, 0xcc, 0x29, 0x08, 0xe7,
  0x3d, 0xf3, 0x36, 0xe5, 0xfe, 0x14, 0xeb, 0x30, 0x06, 0xf8, 0xd2, 0x81,
  0xf0, 0x29, 0x15, 0x47, 0xfa, 0x00, 0x8b, 0xda, 0x01, 0xee, 0x1d, 0xde,
  0x24, 0xc1, 0x2d, 0x27, 0x11, 0xe9, 0x11, 0x98, 0x2c, 0x4a, 0x1a, 0xda,
  0xe4, 0x31, 0x3a, 0x02, 0x01, 0xe9, 0x35, 0x2f, 0xf7, 0x13, 0xb2, 0x27,
  0xf6, 0xc1, 0x20, 0xdc, 0x2b, 0x24, 0x00, 0x23, 0x17, 0xd5, 0x21, 0x49,
  0xf0, 0x3d, 0x3e, 0xf6, 0x37, 0x00, 0xc7, 0xc8, 0xe2, 0x02, 0x7f, 0xec,
  0x1b, 0xce, 0x29, 0x18, 0xdd, 0x1d, 0xe1, 0xd2, 0xea, 0x47, 0xe0, 0xb7,
  0x02, 0xfb, 0x01, 0xf3, 0x41, 0xcb, 0xdf, 0xdf, 0x4d, 0x12, 0x30, 0xc8,
  0xe7, 0x27, 0x10, 0xb3, 0xd0, 0x01, 0xd6, 0xf6, 0xdb, 0x17, 0x44, 0xd3,
  0x27, 0xea, 0x19, 0xa4, 0x0c, 0x81, 0x37, 0xb4, 0x1e, 0xc0, 0xbe, 0x96,
  0xe2, 0x6e, 0xf7, 0x1b, 0xbd, 0xb4, 0xe6, 0xfd, 0x5b, 0x50, 0xb7, 0xf6,
  0xc2, 0xc5, 0xcf, 0xfa, 0xe8, 0x48, 0x04, 0xa3, 0xfd, 0x5a, 0x53, 0x05,
  0x93, 0xd3, 0x46, 0x24, 0x28, 0xdf, 0xe1, 0x00, 0x41, 0xc6, 0xfa, 0x2c,
  0x44, 0x02, 0x7f, 0xbc, 0x00, 0xd5, 0x08, 0x2a, 0xbb, 0x4a, 0xfe, 0xb9,
  0x3c, 0x22, 0x19, 0x11, 0xde, 0x15, 0xb0, 0xdf, 0xd1, 0xdd, 0x79, 0xb1,
  0xd8, 0x1b, 0x13, 0x53, 0x4a, 0xc0, 0x24, 0xd5, 0xea, 0x85, 0xfe, 0x2c,
  0x28, 0x6f, 0xbd, 0xc6, 0x02, 0xcd, 0x50, 0x3a, 0xe8, 0xc1, 0x0e, 0xd2,
  0x21, 0xf7, 0x99, 0x46, 0xde, 0x32, 0x0e, 0x13, 0x09, 0x2e, 0x1b, 0xbe,
  0x47, 0xe0, 0x5a, 0xcb, 0x22, 0x16, 0xaa, 0x3f, 0x31, 0xd5, 0x09, 0x1a,
  0x5c, 0xa7, 0x40, 0x05, 0xdd, 0xfc, 0xd5, 0xeb, 0x09, 0xea, 0x59, 0xe6,
  0x4d, 0x0d, 0x35, 0x5d, 0x40, 0xb7, 0xe9, 0x27, 0xf8, 0xbb, 0xa7, 0xef,
  0x16, 0x02, 0x7f, 0x36, 0xf2, 0x6a, 0x13, 0xea, 0xf5, 0xb5, 0x0b, 0xde,
  0xdd, 0x13, 0x1a, 0x74, 0x3d, 0xce, 0xcc, 0xc4, 0xad, 0xc7, 0xce, 0xdb,
  0x56, 0x11, 0xe5, 0xea, 0x41, 0xfb, 0x0f, 0xfd, 0x24, 0x1b, 0xe1, 0x3f,
  0x18, 0xf5, 0xec, 0x27, 0xd4, 0xe2, 0x36, 0xee, 0xdd, 0x06, 0xdc, 0x0c,
  0x05, 0x51, 0xcf, 0xe8, 0xdd, 0x18, 0x81, 0xf7, 0xfa, 0xf4, 0x29, 0xc3,
  0x18, 0xb4, 0xeb, 0x36, 0xe7, 0xac, 0x18, 0xf4, 0x46, 0xd3, 0x21, 0xdc,
  0x29, 0xd5, 0xbb, 0x04, 0xca, 0x01, 0xcd, 0xee, 0x1d, 0xfa, 0x29, 0xcf,
  0xe2, 0x25, 0x35, 0x46, 0xd1, 0xfd, 0xed, 0xd1, 0xfb, 0x48, 0xec, 0x2b,
  0xd0, 0xda, 0xc6, 0x28, 0xb9, 0x10, 0xfc, 0x34, 0x9f, 0xff, 0xfe, 0x30,
  0xe8, 0xd0, 0x03, 0xec, 0xd8, 0x7f, 0x83, 0xe5, 0x82, 0xfa, 0x15, 0xe4,
  0x0a, 0xea, 0xbd, 0x52, 0xff, 0xbb, 0x13, 0x4e, 0xfe, 0x00, 0x14, 0xd7,
  0x81, 0x0d, 0xe7, 0x0a, 0xa8, 0x3a, 0x2e, 0xa7, 0x3a, 0xe9, 0x28, 0x93,
  0xc7, 0x49, 0xcc, 0xb7, 0x3a, 0x23, 0xd1, 0x3f, 0xbb, 0x3f, 0x40, 0x02,
  0x91, 0xdd, 0x28, 0x96, 0x3a, 0x45, 0x08, 0xe2, 0x4b, 0x6e, 0x31, 0x2c,
  0xeb, 0x3b, 0x26, 0x12, 0x52, 0x00, 0xcd, 0x30, 0x45, 0xd8, 0xda, 0xb8,
  0x4f, 0x0a, 0x40, 0x62, 0x5a, 0x5f, 0xde, 0x3f, 0x11, 0xce, 0xcf, 0xa3,
  0x81, 0x09, 0x1b, 0xc3, 0x04, 0xd1, 0x52, 0xf7, 0x17, 0xfa, 0xe3, 0x1d,
  0xca, 0xe6, 0xfc, 0xeb, 0xbb, 0x30, 0xe1, 0x26, 0xfc, 0xf7, 0x3f, 0xfa,
  0x36, 0xed, 0xdf, 0xcf, 0xf4, 0x19, 0x15, 0x53, 0xe6, 0x0b, 0x2e, 0xff,
  0xef, 0xec, 0x10, 0x79, 0x49, 0xea, 0x86, 0x28, 0x04, 0x19, 0xff, 0x0c,
  0xf1, 0x4e, 0x22, 0x17, 0x46, 0xfc, 0xff, 0xff, 0x04, 0x00, 0x00, 0x00,
  0x80, 0x00, 0x00, 0x00, 0x78, 0x00, 0x00, 0x00, 0xa6, 0xfa, 0xff, 0xff,
  0xc1, 0x05, 0x00, 0x00, 0x93, 0x02, 0x00, 0x00, 0x9b, 0x02, 0x00, 0x00,
  0xd2, 0xfc, 0xff, 0xff, 0x36, 0xfe, 0xff, 0xff, 0x45, 0xfe, 0xff, 0xff,
  0xde, 0x02, 0x00, 0x00, 0x52, 0x00, 0x00, 0x00, 0x69, 0x04, 0x00, 0x00,
  0x09, 0x02, 0x00, 0x00, 0x77, 0x04, 0x00, 0x00, 0x44, 0xfd, 0xff, 0xff,
  0x1d, 0x05, 0x00, 0x00, 0x3b, 0x00, 0x00, 0x00, 0x82, 0x02, 0x00, 0x00,
  0x26, 0x04, 0x00, 0x00, 0x71, 0xfd, 0xff, 0xff, 0xa2, 0xfd, 0xff, 0xff,
  0x74, 0x02, 0x00, 0x00, 0x93, 0x01, 0x00, 0x00, 0x3d, 0x06, 0x00, 0x00,
  0x02, 0x04, 0x00, 0x00, 0x57, 0x02, 0x00, 0x00, 0xa1, 0x00, 0x00, 0x00,
  0x20, 0xfd, 0xff, 0xff, 0xa5, 0x05, 0x00, 0x00, 0x21, 0x02, 0x00, 0x00,
  0x63, 0x03, 0x00, 0x00, 0x31, 0xfc, 0xff, 0xff, 0xfb, 0x04, 0x00, 0x00,
  0xd2, 0xfc, 0xff, 0xff, 0x04, 0x00, 0x00, 0x00, 0x00, 0x02, 0x00, 0x00,
  0x57, 0x28, 0x05, 0x81, 0xe4, 0x53, 0xce, 0xd9, 0x43, 0x73, 0xcb, 0xee,
  0x2e, 0x0e, 0xf8, 0x75, 0xfa, 0x29, 0x39, 0x32, 0x4f, 0x76, 0x08, 0x5f,
  0xd6, 0xf1, 0xf0, 0xb1, 0x6e, 0x38, 0xf3, 0xe9, 0xab, 0x1d, 0xb7, 0x2c,
  0x12, 0x30, 0x54, 0x15, 0x1b, 0x0f, 0x23, 0x05, 0xcf, 0x1d, 0x5a, 0xe5,
  0xf4, 0x9d, 0xcb, 0x20, 0x2f, 0xc0, 0xf4, 0xac, 0x2c, 0x55, 0xfc, 0x64,
  0xe8, 0x29, 0x36, 0x7f, 0xf2, 0xef, 0xbf, 0x7f, 0x20, 0x43, 0x2b, 0xb1,
  0xa4, 0x62, 0xab, 0x46, 0x46, 0x61, 0x5b, 0xd0, 0xf8, 0x5a, 0x47, 0xb2,
  0x12, 0xa5, 0x94, 0x13, 0x75, 0xfb, 0x04, 0xc8, 0xe1, 0xf3, 0xe9, 0x78,
  0x47, 0xb2, 0x7f, 0x3e, 0x25, 0xdc, 0xfe, 0x4c, 0x12, 0xdf, 0x1d, 0xff,
  0x6e, 0xb8, 0xc2, 0xbf, 0x55, 0x34, 0x2f, 0xac, 0x35, 0xf4, 0x14, 0x49,
  0x94, 0xc6, 0xed, 0x2b, 0x25, 0xd7, 0xd2, 0x9e, 0xb4, 0x51, 0x9a, 0x63,
  0x72, 0x1d, 0x1a, 0x16, 0x0c, 0x1b, 0x01, 0x00, 0x1f, 0xbb, 0x6c, 0x46,
  0xc0, 0x13, 0xb4, 0xd9, 0x24, 0xf3, 0xb6, 0xb5, 0x3d, 0x7f, 0x4a, 0x54,
  0xf9, 0x56, 0xcc, 0xf4, 0xcd, 0x56, 0xd7, 0xe5, 0x3e, 0x5a, 0x2e, 0xf0,
  0xfd, 0xf0, 0xf6, 0x97, 0x0c, 0x09, 0x7f, 0xaa, 0x13, 0xcf, 0x10, 0x38,
  0x1b, 0xe8, 0x22, 0xd1, 0xd5, 0xc7, 0xe6, 0x1e, 0xdd, 0x06, 0x62, 0x39,
  0xfb, 0x1d, 0x7f, 0xc4, 0xb0, 0xf0, 0x3f, 0x17, 0x02, 0xd3, 0x4a, 0xfe,
  0x37, 0xad, 0x9e, 0x4d, 0x53, 0x3e, 0xed, 0x32, 0x36, 0x55, 0x6e, 0x1b,
  0xdc, 0xc2, 0x35, 0x32, 0xfa, 0xa1, 0x02, 0x07, 0xbf, 0xc4, 0xc3, 0x24,
  0x0e, 0xad, 0xbb, 0x28, 0xba, 0x27, 0xe5, 0x11, 0xf8, 0xef, 0x7f, 0xf5,
  0xfd, 0xfe, 0xf1, 0x1c, 0x15, 0xe8, 0x1b, 0xcb, 0xfe, 0x35, 0xba, 0x39,
  0x35, 0xe1, 0x02, 0xd9, 0x00, 0xfc, 0x6c, 0x04, 0xe5, 0x12, 0xc1, 0x51,
  0x3b, 0x42, 0x33, 0x0c, 0x2f, 0xe2, 0x81, 0x47, 0x1a, 0x46, 0x39, 0xe6,
  0xd2, 0x3b, 0x5d, 0x22, 0x1c, 0x1c, 0xd8, 0x13, 0x0a, 0xca, 0xde, 0xc4,
  0xf2, 0xdc, 0xb7, 0x34, 0xc8, 0xa7, 0xea, 0x2a, 0xc1, 0xf5, 0x41, 0x55,
  0xf6, 0x37, 0x64, 0xf1, 0xe7, 0xe6, 0x58, 0x0b, 0x01, 0x0f, 0x29, 0xd7,
  0xae, 0xeb, 0xd1, 0x50, 0x8d, 0x7f, 0xc3, 0x43, 0xc3, 0x4e, 0xc8, 0xff,
  0xd4, 0xd5, 0x40, 0xea, 0x2a, 0xfe, 0x63, 0xee, 0xe7, 0xac, 0x02, 0xff,
  0x3f, 0xe5, 0x49, 0x81, 0xba, 0x66, 0xdb, 0xff, 0x15, 0xa8, 0x93, 0x1e,
  0x41, 0x36, 0x2e, 0x21, 0x29, 0xb3, 0x7f, 0xce, 0xe4, 0x32, 0xcb, 0x53,
  0x05, 0x34, 0x1b, 0x26, 0x49, 0x4c, 0xf4, 0x4d, 0x4d, 0x73, 0xd9, 0x22,
  0x11, 0x19, 0x1f, 0x53, 0x97, 0x1f, 0x03, 0xd2, 0x6e, 0xac, 0xc4, 0x1a,
  0xc2, 0x19, 0xec, 0x2c, 0xc4, 0x92, 0xd8, 0x6d, 0x3b, 0x51, 0x11, 0x47,
  0x7d, 0x81, 0xe2, 0xa7, 0x54, 0xfd, 0xb8, 0xbc, 0x1d, 0xfd, 0x66, 0x1b,
  0xe9, 0xe6, 0x69, 0xe8, 0x47, 0x93, 0xb6, 0x1d, 0x63, 0xbb, 0xf8, 0xb0,
  0xa6, 0xbd, 0x0a, 0x39, 0xa4, 0x02, 0x22, 0xd8, 0xfc, 0xcb, 0x81, 0x2b,
  0x60, 0xf1, 0x1a, 0xd6, 0x69, 0xde, 0x04, 0x2a, 0xd4, 0x26, 0x3d, 0x1a,
  0x0a, 0xd3, 0x3d, 0xcd, 0xbc, 0xb7, 0xd6, 0x43, 0x2e, 0x43, 0xb8, 0xcf,
  0x06, 0x09, 0x42, 0x4d, 0x8d, 0xd4, 0x61, 0xa8, 0xf9, 0x97, 0x34, 0x7f,
  0x3d, 0xd1, 0x19, 0x52, 0x37, 0x7b, 0xac, 0x1d, 0xed, 0x74, 0x10, 0x21,
  0x1f, 0xe7, 0x44, 0xcc, 0xc1, 0x36, 0x20, 0x35, 0xe4, 0x46, 0xe5, 0x44,
  0x44, 0xb4, 0x81, 0x1a, 0x3c, 0xf6, 0x2c, 0xd4, 0x1b, 0x2c, 0x52, 0x69,
  0x2a, 0x0d, 0x33, 0x30, 0xe6, 0xea, 0xd7, 0xbf, 0xde, 0xfe, 0xff, 0xff,
  0x04, 0x00, 0x00, 0x00, 0x40, 0x00, 0x00, 0x00, 0xea, 0x05, 0x00, 0x00,
  0xb2, 0x00, 0x00, 0x00, 0x58, 0xff, 0xff, 0xff, 0xc8, 0x04, 0x00, 0x00,
  0xd5, 0x00, 0x00, 0x00, 0x29, 0x01, 0x00, 0x00, 0x9b, 0x04, 0x00, 0x00,
  0x1d, 0x01, 0x00, 0x00, 0xd2, 0x04, 0x00, 0x00, 0xc6, 0x00, 0x00, 0x00,
  0xff, 0x00, 0x00, 0x00, 0x30, 0x02, 0x00, 0x00, 0x89, 0x02, 0x00, 0x00,
  0x13, 0x03, 0x00, 0x00, 0x4f, 0x00, 0x00, 0x00, 0xf1, 0x04, 0x00, 0x00,
  0x2a, 0xff, 0xff, 0xff, 0x04, 0x00, 0x00, 0x00, 0x20, 0x00, 0x00, 0x00,
  0xe4, 0x8c, 0xbc, 0x65, 0xfc, 0x90, 0xff, 0xb2, 0x7f, 0x89, 0xe5, 0x3a,
  0x44, 0x06, 0xfb, 0x7b, 0xb4, 0x7f, 0x5b, 0xb8, 0x65, 0x40, 0x91, 0x28,
  0xf4, 0x50, 0xd7, 0xeb, 0xa3, 0xac, 0x5e, 0x1c, 0x56, 0xff, 0xff, 0xff,
  0x04, 0x00, 0x00, 0x00, 0x08, 0x00, 0x00, 0x00, 0xb7, 0x01, 0x00, 0x00,
  0x9b, 0xfe, 0xff, 0xff, 0x38, 0xff, 0xff, 0xff, 0x3c, 0xff, 0xff, 0xff,
  0x0f, 0x00, 0x00, 0x00, 0x4d, 0x4c, 0x49, 0x52, 0x20, 0x43, 0x6f, 0x6e,
  0x76, 0x65, 0x72, 0x74, 0x65, 0x64, 0x2e, 0x00, 0x01, 0x00, 0x00, 0x00,
  0x14, 0x00, 0x00, 0x00, 0x00, 0x00, 0x0e, 0x00, 0x18, 0x00, 0x14, 0x00,
  0x10, 0x00, 0x0c, 0x00, 0x08, 0x00, 0x04, 0x00, 0x0e, 0x00, 0x00, 0x00,
  0x14, 0x00, 0x00, 0x00, 0x1c, 0x00, 0x00, 0x00, 0x28, 0x01, 0x00, 0x00,
  0x2c, 0x01, 0x00, 0x00, 0x30, 0x01, 0x00, 0x00, 0x04, 0x00, 0x00, 0x00,
  0x6d, 0x61, 0x69, 0x6e, 0x00, 0x00, 0x00, 0x00, 0x04, 0x00, 0x00, 0x00,
  0xd0, 0x00, 0x00, 0x00, 0x88, 0x00, 0x00, 0x00, 0x50, 0x00, 0x00, 0x00,
  0x14, 0x00, 0x00, 0x00, 0x00, 0x00, 0x0e, 0x00, 0x1a, 0x00, 0x14, 0x00,
  0x10, 0x00, 0x0c, 0x00, 0x0b, 0x00, 0x04, 0x00, 0x0e, 0x00, 0x00, 0x00,
  0x1c, 0x00, 0x00, 0x00, 0x00, 0x00, 0x00, 0x09, 0x1c, 0x00, 0x00, 0x00,
  0x20, 0x00, 0x00, 0x00, 0x01, 0x00, 0x00, 0x00, 0x00, 0x00, 0x06, 0x00,
  0x08, 0x00, 0x04, 0x00, 0x06, 0x00, 0x00, 0x00, 0x00, 0x00, 0x80, 0x3f,
  0x01, 0x00, 0x00, 0x00, 0x0a, 0x00, 0x00, 0x00, 0x01, 0x00, 0x00, 0x00,
  0x09, 0x00, 0x00, 0x00, 0x96, 0xff, 0xff, 0xff, 0x14, 0x00, 0x00, 0x00,
  0x00, 0x00, 0x00, 0x08, 0x10, 0x00, 0x00, 0x00, 0x14, 0x00, 0x00, 0x00,
  0x04, 0x00, 0x04, 0x00, 0x04, 0x00, 0x00, 0x00, 0x01, 0x00, 0x00, 0x00,
  0x09, 0x00, 0x00, 0x00, 0x03, 0x00, 0x00, 0x00, 0x08, 0x00, 0x00, 0x00,
  0x02, 0x00, 0x00, 0x00, 0x01, 0x00, 0x00, 0x00, 0xca, 0xff, 0xff, 0xff,
  0x10, 0x00, 0x00, 0x00, 0x00, 0x00, 0x00, 0x08, 0x10, 0x00, 0x00, 0x00,
  0x14, 0x00, 0x00, 0x00, 0xba, 0xff, 0xff, 0xff, 0x00, 0x00, 0x00, 0x01,
  0x01, 0x00, 0x00, 0x00, 0x08, 0x00, 0x00, 0x00, 0x03, 0x00, 0x00, 0x00,
  0x07, 0x00, 0x00, 0x00, 0x04, 0x00, 0x00, 0x00, 0x03, 0x00, 0x00, 0x00,
  0x00, 0x00, 0x0e, 0x00, 0x16, 0x00, 0x00, 0x00, 0x10, 0x00, 0x0c, 0x00,
  0x0b, 0x00, 0x04, 0x00, 0x0e, 0x00, 0x00, 0x00, 0x18, 0x00, 0x00, 0x00,
  0x00, 0x00, 0x00, 0x08, 0x18, 0x00, 0x00, 0x00, 0x1c, 0x00, 0x00, 0x00,
  0x00, 0x00, 0x06, 0x00, 0x08, 0x00, 0x07, 0x00, 0x06, 0x00, 0x00, 0x00,
  0x00, 0x00, 0x00, 0x01, 0x01, 0x00, 0x00, 0x00, 0x07, 0x00, 0x00, 0x00,
  0x03, 0x00, 0x00, 0x00, 0x00, 0x00, 0x00, 0x00, 0x06, 0x00, 0x00, 0x00,
  0x05, 0x00, 0x00, 0x00, 0x01, 0x00, 0x00, 0x00, 0x0a, 0x00, 0x00, 0x00,
  0x01, 0x00, 0x00, 0x00, 0x00, 0x00, 0x00, 0x00, 0x0b, 0x00, 0x00, 0x00,
  0x88, 0x09, 0x00, 0x00, 0x00, 0x09, 0x00, 0x00, 0x74, 0x08, 0x00, 0x00,
  0x60, 0x07, 0x00, 0x00, 0x44, 0x06, 0x00, 0x00, 0x70, 0x04, 0x00, 0x00,
  0x94, 0x02, 0x00, 0x00, 0xe0, 0x01, 0x00, 0x00, 0x24, 0x01, 0x00, 0x00,
  0x80, 0x00, 0x00, 0x00, 0x04, 0x00, 0x00, 0x00, 0xba, 0xf6, 0xff, 0xff,
  0x00, 0x00, 0x00, 0x01, 0x18, 0x00, 0x00, 0x00, 0x20, 0x00, 0x00, 0x00,
  0x3c, 0x00, 0x00, 0x00, 0x0b, 0x00, 0x00, 0x00, 0x00, 0x00, 0x00, 0x09,
  0x50, 0x00, 0x00, 0x00, 0x02, 0x00, 0x00, 0x00, 0xff, 0xff, 0xff, 0xff,
  0x02, 0x00, 0x00, 0x00, 0xa4, 0xf6, 0xff, 0xff, 0x08, 0x00, 0x00, 0x00,
  0x10, 0x00, 0x00, 0x00, 0x01, 0x00, 0x00, 0x00, 0x80, 0xff, 0xff, 0xff,
  0xff, 0xff, 0xff, 0xff, 0x01, 0x00, 0x00, 0x00, 0x00, 0x00, 0x80, 0x3b,
  0x1b, 0x00, 0x00, 0x00, 0x53, 0x74, 0x61, 0x74, 0x65, 0x66, 0x75, 0x6c,
  0x50, 0x61, 0x72, 0x74, 0x69, 0x74, 0x69, 0x6f, 0x6e, 0x65, 0x64, 0x43,
  0x61, 0x6c, 0x6c, 0x5f, 0x31, 0x3a, 0x30, 0x00, 0x02, 0x00, 0x00, 0x00,
  0x01, 0x00, 0x00, 0x00, 0x02, 0x00, 0x00, 0x00, 0x32, 0xf7, 0xff, 0xff,
  0x00, 0x00, 0x00, 0x01, 0x18, 0x00, 0x00, 0x00, 0x20, 0x00, 0x00, 0x00,
  0x40, 0x00, 0x00, 0x00, 0x0a, 0x00, 0x00, 0x00, 0x00, 0x00, 0x00, 0x09,
  0x78, 0x00, 0x00, 0x00, 0x02, 0x00, 0x00, 0x00, 0xff, 0xff, 0xff, 0xff,
  0x02, 0x00, 0x00, 0x00, 0x1c, 0xf7, 0xff, 0xff, 0x08, 0x00, 0x00, 0x00,
  0x14, 0x00, 0x00, 0x00, 0x01, 0x00, 0x00, 0x00, 0xed, 0xff, 0xff, 0xff,
  0xff, 0xff, 0xff, 0xff, 0x00, 0x00, 0x00, 0x00, 0x01, 0x00, 0x00, 0x00,
  0x57, 0xb0, 0xae, 0x3d, 0x3c, 0x00, 0x00, 0x00, 0x73, 0x65, 0x71, 0x75,
  0x65, 0x6e, 0x74, 0x69, 0x61, 0x6c, 0x5f, 0x31, 0x2f, 0x64, 0x65, 0x6e,
  0x73, 0x65, 0x5f, 0x32, 0x5f, 0x31, 0x2f, 0x4d, 0x61, 0x74, 0x4d, 0x75,
  0x6c, 0x3b, 0x73, 0x65, 0x71, 0x75, 0x65, 0x6e, 0x74, 0x69, 0x61, 0x6c,
  0x5f, 0x31, 0x2f, 0x64, 0x65, 0x6e, 0x73, 0x65, 0x5f, 0x32, 0x5f, 0x31,
  0x2f, 0x42, 0x69, 0x61, 0x73, 0x41, 0x64, 0x64, 0x00, 0x00, 0x00, 0x00,
  0x02, 0x00, 0x00, 0x00, 0x01, 0x00, 0x00, 0x00, 0x02, 0x00, 0x00, 0x00,
  0xd2, 0xf7, 0xff, 0xff, 0x00, 0x00, 0x00, 0x01, 0x18, 0x00, 0x00, 0x00,
  0x20, 0x00, 0x00, 0x00, 0x3c, 0x00, 0x00, 0x00, 0x09, 0x00, 0x00, 0x00,
  0x00, 0x00, 0x00, 0x09, 0x90, 0x00, 0x00, 0x00, 0x02, 0x00, 0x00, 0x00,
  0xff, 0xff, 0xff, 0xff, 0x10, 0x00, 0x00, 0x00, 0xbc, 0xf7, 0xff, 0xff,
  0x08, 0x00, 0x00, 0x00, 0x10, 0x00, 0x00, 0x00, 0x01, 0x00, 0x00, 0x00,
  0x80, 0xff, 0xff, 0xff, 0xff, 0xff, 0xff, 0xff, 0x01, 0x00, 0x00, 0x00,
  0xac, 0x23, 0xd0, 0x3c, 0x58, 0x00, 0x00, 0x00, 0x73, 0x65, 0x71, 0x75,
  0x65, 0x6e, 0x74, 0x69, 0x61, 0x6c, 0x5f, 0x31, 0x2f, 0x64, 0x65, 0x6e,
  0x73, 0x65, 0x5f, 0x31, 0x5f, 0x32, 0x2f, 0x4d, 0x61, 0x74, 0x4d, 0x75,
  0x6c, 0x3b, 0x73, 0x65, 0x71, 0x75, 0x65, 0x6e, 0x74, 0x69, 0x61, 0x6c,
  0x5f, 0x31, 0x2f, 0x64, 0x65, 0x6e, 0x73, 0x65, 0x5f, 0x31, 0x5f, 0x32,
  0x2f, 0x52, 0x65, 0x6c, 0x75, 0x3b, 0x73, 0x65, 0x71, 0x75, 0x65, 0x6e,
  0x74, 0x69, 0x61, 0x6c, 0x5f, 0x31, 0x2f, 0x64, 0x65, 0x6e, 0x73, 0x65,
  0x5f, 0x31, 0x5f, 0x32, 0x2f, 0x42, 0x69, 0x61, 0x73, 0x41, 0x64, 0x64,
  0x00, 0x00, 0x00, 0x00, 0x02, 0x00, 0x00, 0x00, 0x01, 0x00, 0x00, 0x00,
  0x10, 0x00, 0x00, 0x00, 0x8a, 0xf8, 0xff, 0xff, 0x00, 0x00, 0x00, 0x01,
  0x18, 0x00, 0x00, 0x00, 0x20, 0x00, 0x00, 0x00, 0x3c, 0x00, 0x00, 0x00,
  0x08, 0x00, 0x00, 0x00, 0x00, 0x00, 0x00, 0x09, 0x88, 0x00, 0x00, 0x00,
  0x02, 0x00, 0x00, 0x00, 0xff, 0xff, 0xff, 0xff, 0x20, 0x00, 0x00, 0x00,
  0x74, 0xf8, 0xff, 0xff, 0x08, 0x00, 0x00, 0x00, 0x10, 0x00, 0x00, 0x00,
  0x01, 0x00, 0x00, 0x00, 0x80, 0xff, 0xff, 0xff, 0xff, 0xff, 0xff, 0xff,
  0x01, 0x00, 0x00, 0x00, 0x02, 0xc1, 0xd5, 0x3c, 0x52, 0x00, 0x00, 0x00,
  0x73, 0x65, 0x71, 0x75, 0x65, 0x6e, 0x74, 0x69, 0x61, 0x6c, 0x5f, 0x31,
  0x2f, 0x64, 0x65, 0x6e, 0x73, 0x65, 0x5f, 0x31, 0x2f, 0x4d, 0x61, 0x74,
  0x4d, 0x75, 0x6c, 0x3b, 0x73, 0x65, 0x71, 0x75, 0x65, 0x6e, 0x74, 0x69,
  0x61, 0x6c, 0x5f, 0x31, 0x2f, 0x64, 0x65, 0x6e, 0x73, 0x65, 0x5f, 0x31,
  0x2f, 0x52, 0x65, 0x6c, 0x75, 0x3b, 0x73, 0x65, 0x71, 0x75, 0x65, 0x6e,
  0x74, 0x69, 0x61, 0x6c, 0x5f, 0x31, 0x2f, 0x64, 0x65, 0x6e, 0x73, 0x65,
  0x5f, 0x31, 0x2f, 0x42, 0x69, 0x61, 0x73, 0x41, 0x64, 0x64, 0x00, 0x00,
  0x02, 0x00, 0x00, 0x00, 0x01, 0x00, 0x00, 0x00, 0x20, 0x00, 0x00, 0x00,
  0xbe, 0xf9, 0xff, 0xff, 0x00, 0x00, 0x00, 0x01, 0x14, 0x00, 0x00, 0x00,
  0xa8, 0x01, 0x00, 0x00, 0x07, 0x00, 0x00, 0x00, 0x00, 0x00, 0x00, 0x09,
  0xb4, 0x01, 0x00, 0x00, 0x14, 0xf9, 0xff, 0xff, 0x08, 0x00, 0x00, 0x00,
  0x0c, 0x01, 0x00, 0x00, 0x20, 0x00, 0x00, 0x00, 0x00, 0x00, 0x00, 0x00,
  0x00, 0x00, 0x00, 0x00, 0x00, 0x00, 0x00, 0x00, 0x00, 0x00, 0x00, 0x00,
  0x00, 0x00, 0x00, 0x00, 0x00, 0x00, 0x00, 0x00, 0x00, 0x00, 0x00, 0x00,
  0x00, 0x00, 0x00, 0x00, 0x00, 0x00, 0x00, 0x00, 0x00, 0x00, 0x00, 0x00,
  0x00, 0x00, 0x00, 0x00, 0x00, 0x00, 0x00, 0x00, 0x00, 0x00, 0x00, 0x00,
  0x00, 0x00, 0x00, 0x00, 0x00, 0x00, 0x00, 0x00, 0x00, 0x00, 0x00, 0x00,
  0x00, 0x00, 0x00, 0x00, 0x00, 0x00, 0x00, 0x00, 0x00, 0x00, 0x00, 0x00,
  0x00, 0x00, 0x00, 0x00, 0x00, 0x00, 0x00, 0x00, 0x00, 0x00, 0x00, 0x00,
  0x00, 0x00, 0x00, 0x00, 0x00, 0x00, 0x00, 0x00, 0x00, 0x00, 0x00, 0x00,
  0x00, 0x00, 0x00, 0x00, 0x00, 0x00, 0x00, 0x00, 0x00, 0x00, 0x00, 0x00,
  0x00, 0x00, 0x00, 0x00, 0x00, 0x00, 0x00, 0x00, 0x00, 0x00, 0x00, 0x00,
  0x00, 0x00, 0x00, 0x00, 0x00, 0x00, 0x00, 0x00, 0x00, 0x00, 0x00, 0x00,
  0x00, 0x00, 0x00, 0x00, 0x00, 0x00, 0x00, 0x00, 0x00, 0x00, 0x00, 0x00,
  0x00, 0x00, 0x00, 0x00, 0x00, 0x00, 0x00, 0x00, 0x00, 0x00, 0x00, 0x00,
  0x00, 0x00, 0x00, 0x00, 0x00, 0x00, 0x00, 0x00, 0x00, 0x00, 0x00, 0x00,
  0x00, 0x00, 0x00, 0x00, 0x00, 0x00, 0x00, 0x00, 0x00, 0x00, 0x00, 0x00,
  0x00, 0x00, 0x00, 0x00, 0x00, 0x00, 0x00, 0x00, 0x00, 0x00, 0x00, 0x00,
  0x00, 0x00, 0x00, 0x00, 0x00, 0x00, 0x00, 0x00, 0x00, 0x00, 0x00, 0x00,
  0x00, 0x00, 0x00, 0x00, 0x00, 0x00, 0x00, 0x00, 0x00, 0x00, 0x00, 0x00,
  0x00, 0x00, 0x00, 0x00, 0x00, 0x00, 0x00, 0x00, 0x00, 0x00, 0x00, 0x00,
  0x00, 0x00, 0x00, 0x00, 0x00, 0x00, 0x00, 0x00, 0x00, 0x00, 0x00, 0x00,
  0x00, 0x00, 0x00, 0x00, 0x00, 0x00, 0x00, 0x00, 0x00, 0x00, 0x00, 0x00,
  0x00, 0x00, 0x00, 0x00, 0x20, 0x00, 0x00, 0x00, 0x08, 0xfe, 0x80, 0x3b,
  0x57, 0xe3, 0x15, 0x3b, 0x36, 0x38, 0x85, 0x3b, 0x90, 0xaa, 0x7b, 0x3b,
  0x10, 0x81, 0x69, 0x3b, 0x41, 0x95, 0x20, 0x3b, 0x05, 0xf1, 0x67, 0x3b,
  0xac, 0x3d, 0x31, 0x3b, 0x2b, 0xe9, 0x51, 0x3b, 0x2a, 0xfb, 0x1f, 0x3b,
  0x95, 0xe6, 0x12, 0x3b, 0x00, 0x81, 0x41, 0x3b, 0x39, 0x76, 0x63, 0x3b,
  0x53, 0x21, 0x40, 0x3b, 0x92, 0x7c, 0x8f, 0x3b, 0xf3, 0x7d, 0x46, 0x3b,
  0xbd, 0xd1, 0x80, 0x3b, 0x54, 0x24, 0x4d, 0x3b, 0x3b, 0xb3, 0x22, 0x3b,
  0x0a, 0x3a, 0x2c, 0x3b, 0x2e, 0x60, 0x30, 0x3b, 0x0f, 0x34, 0x69, 0x3b,
  0x59, 0xf9, 0x48, 0x3b, 0xb5, 0xf7, 0x7a, 0x3b, 0x57, 0x5c, 0x6f, 0x3b,
  0xf4, 0x9e, 0x39, 0x3b, 0x59, 0x13, 0x2a, 0x3b, 0x56, 0x95, 0x5b, 0x3b,
  0x3a, 0xd0, 0x5f, 0x3b, 0xa7, 0xcc, 0x51, 0x3b, 0x18, 0x9a, 0x1e, 0x3b,
  0x38, 0xff, 0x64, 0x3b, 0x12, 0x00, 0x00, 0x00, 0x74, 0x66, 0x6c, 0x2e,
  0x70, 0x73, 0x65, 0x75, 0x64, 0x6f, 0x5f, 0x71, 0x63, 0x6f, 0x6e, 0x73,
  0x74, 0x35, 0x00, 0x00, 0x02, 0x00, 0x00, 0x00, 0x20, 0x00, 0x00, 0x00,
  0x3b, 0x00, 0x00, 0x00, 0x96, 0xfb, 0xff, 0xff, 0x00, 0x00, 0x00, 0x01,
  0x14, 0x00, 0x00, 0x00, 0xa4, 0x01, 0x00, 0x00, 0x06, 0x00, 0x00, 0x00,
  0x00, 0x00, 0x00, 0x02, 0xb0, 0x01, 0x00, 0x00, 0xec, 0xfa, 0xff, 0xff,
  0x08, 0x00, 0x00, 0x00, 0x08, 0x01, 0x00, 0x00, 0x20, 0x00, 0x00, 0x00,
  0x00, 0x00, 0x00, 0x00, 0x00, 0x00, 0x00, 0x00, 0x00, 0x00, 0x00, 0x00,
  0x00, 0x00, 0x00, 0x00, 0x00, 0x00, 0x00, 0x00, 0x00, 0x00, 0x00, 0x00,
  0x00, 0x00, 0x00, 0x00, 0x00, 0x00, 0x00, 0x00, 0x00, 0x00, 0x00, 0x00,
  0x00, 0x00, 0x00, 0x00, 0x00, 0x00, 0x00, 0x00, 0x00, 0x00, 0x00, 0x00,
  0x00, 0x00, 0x00, 0x00, 0x00, 0x00, 0x00, 0x00, 0x00, 0x00, 0x00, 0x00,
  0x00, 0x00, 0x00, 0x00, 0x00, 0x00, 0x00, 0x00, 0x00, 0x00, 0x00, 0x00,
  0x00, 0x00, 0x00, 0x00, 0x00, 0x00, 0x00, 0x00, 0x00, 0x00, 0x00, 0x00,
  0x00, 0x00, 0x00, 0x00, 0x00, 0x00, 0x00, 0x00, 0x00, 0x00, 0x00, 0x00,
  0x00, 0x00, 0x00, 0x00, 0x00, 0x00, 0x00, 0x00, 0x00, 0x00, 0x00, 0x00,
  0x00, 0x00, 0x00, 0x00, 0x00, 0x00, 0x00, 0x00, 0x00, 0x00, 0x00, 0x00,
  0x00, 0x00, 0x00, 0x00, 0x00, 0x00, 0x00, 0x00, 0x00, 0x00, 0x00, 0x00,
  0x00, 0x00, 0x00, 0x00, 0x00, 0x00, 0x00, 0x00, 0x00, 0x00, 0x00, 0x00,
  0x00, 0x00, 0x00, 0x00, 0x00, 0x00, 0x00, 0x00, 0x00, 0x00, 0x00, 0x00,
  0x00, 0x00, 0x00, 0x00, 0x00, 0x00, 0x00, 0x00, 0x00, 0x00, 0x00, 0x00,
  0x00, 0x00, 0x00, 0x00, 0x00, 0x00, 0x00, 0x00, 0x00, 0x00, 0x00, 0x00,
  0x00, 0x00, 0x00, 0x00, 0x00, 0x00, 0x00, 0x00, 0x00, 0x00, 0x00, 0x00,
  0x00, 0x00, 0x00, 0x00, 0x00, 0x00, 0x00, 0x00, 0x00, 0x00, 0x00, 0x00,
  0x00, 0x00, 0x00, 0x00, 0x00, 0x00, 0x00, 0x00, 0x00, 0x00, 0x00, 0x00,
  0x00, 0x00, 0x00, 0x00, 0x00, 0x00, 0x00, 0x00, 0x00, 0x00, 0x00, 0x00,
  0x00, 0x00, 0x00, 0x00, 0x00, 0x00, 0x00, 0x00, 0x00, 0x00, 0x00, 0x00,
  0x00, 0x00, 0x00, 0x00, 0x00, 0x00, 0x00, 0x00, 0x00, 0x00, 0x00, 0x00,
  0x00, 0x00, 0x00, 0x00, 0x20, 0x00, 0x00, 0x00, 0x95, 0x97, 0x1b, 0x39,
  0xfc, 0xcb, 0xb4, 0x38, 0xec, 0xb0, 0x20, 0x39, 0x0f, 0xc8, 0x17, 0x39,
  0xeb, 0xd3, 0x0c, 0x39, 0x7e, 0xb2, 0xc1, 0x38, 0xa6, 0xe2, 0x0b, 0x39,
  0x49, 0xca, 0xd5, 0x38, 0x70, 0x32, 0xfd, 0x38, 0xa0, 0xf8, 0xc0, 0x38,
  0x87, 0x31, 0xb1, 0x38, 0x25, 0x68, 0xe9, 0x38, 0x02, 0x2f, 0x09, 0x39,
  0xf3, 0xbf, 0xe7, 0x38, 0x48, 0x13, 0x2d, 0x39, 0x6a, 0x6c, 0xef, 0x38,
  0x28, 0x62, 0x1b, 0x39, 0xd9, 0x71, 0xf7, 0x38, 0x3b, 0x40, 0xc4, 0x38,
  0xf4, 0xbd, 0xcf, 0x38, 0x1e, 0xbf, 0xd4, 0x38, 0x7a, 0xa5, 0x0c, 0x39,
  0xd7, 0x6a, 0xf2, 0x38, 0x31, 0x5c, 0x17, 0x39, 0x24, 0x5c, 0x10, 0x39,
  0xf3, 0xe5, 0xdf, 0x38, 0xb3, 0x25, 0xcd, 0x38, 0x9d, 0x6e, 0x04, 0x39,
  0xb6, 0xfb, 0x06, 0x39, 0x0b, 0x10, 0xfd, 0x38, 0xc0, 0x4e, 0xbf, 0x38,
  0x07, 0x1c, 0x0a, 0x39, 0x12, 0x00, 0x00, 0x00, 0x74, 0x66, 0x6c, 0x2e,
  0x70, 0x73, 0x65, 0x75, 0x64, 0x6f, 0x5f, 0x71, 0x63, 0x6f, 0x6e, 0x73,
  0x74, 0x34, 0x00, 0x00, 0x01, 0x00, 0x00, 0x00, 0x20, 0x00, 0x00, 0x00,
  0x66, 0xfd, 0xff, 0xff, 0x00, 0x00, 0x00, 0x01, 0x14, 0x00, 0x00, 0x00,
  0xe8, 0x00, 0x00, 0x00, 0x05, 0x00, 0x00, 0x00, 0x00, 0x00, 0x00, 0x09,
  0xf4, 0x00, 0x00, 0x00, 0xbc, 0xfc, 0xff, 0xff, 0x08, 0x00, 0x00, 0x00,
  0x8c, 0x00, 0x00, 0x00, 0x10, 0x00, 0x00, 0x00, 0x00, 0x00, 0x00, 0x00,
  0x00, 0x00, 0x00, 0x00, 0x00, 0x00, 0x00, 0x00, 0x00, 0x00, 0x00, 0x00,
  0x00, 0x00, 0x00, 0x00, 0x00, 0x00, 0x00, 0x00, 0x00, 0x00, 0x00, 0x00,
  0x00, 0x00, 0x00, 0x00, 0x00, 0x00, 0x00, 0x00, 0x00, 0x00, 0x00, 0x00,
  0x00, 0x00, 0x00, 0x00, 0x00, 0x00, 0x00, 0x00, 0x00, 0x00, 0x00, 0x00,
  0x00, 0x00, 0x00, 0x00, 0x00, 0x00, 0x00, 0x00, 0x00, 0x00, 0x00, 0x00,
  0x00, 0x00, 0x00, 0x00, 0x00, 0x00, 0x00, 0x00, 0x00, 0x00, 0x00, 0x00,
  0x00, 0x00, 0x00, 0x00, 0x00, 0x00, 0x00, 0x00, 0x00, 0x00, 0x00, 0x00,
  0x00, 0x00, 0x00, 0x00, 0x00, 0x00, 0x00, 0x00, 0x00, 0x00, 0x00, 0x00,
  0x00, 0x00, 0x00, 0x00, 0x00, 0x00, 0x00, 0x00, 0x00, 0x00, 0x00, 0x00,
  0x00, 0x00, 0x00, 0x00, 0x00, 0x00, 0x00, 0x00, 0x00, 0x00, 0x00, 0x00,
  0x00, 0x00, 0x00, 0x00, 0x00, 0x00, 0x00, 0x00, 0x10, 0x00, 0x00, 0x00,
  0x36, 0x4e, 0x8f, 0x3b, 0x8e, 0x62, 0x91, 0x3b, 0xaf, 0x83, 0x64, 0x3b,
  0x3f, 0x8d, 0x81, 0x3b, 0x8b, 0xf7, 0x83, 0x3b, 0x5a, 0xfd, 0x87, 0x3b,
  0x1c, 0x39, 0x8a, 0x3b, 0xe8, 0xe5, 0x90, 0x3b, 0x60, 0xfc, 0xb7, 0x3b,
  0x6b, 0xb3, 0x84, 0x3b, 0xf5, 0xe8, 0x6b, 0x3b, 0x34, 0x78, 0x7b, 0x3b,
  0x5c, 0x05, 0x58, 0x3b, 0xa2, 0x07, 0x6c, 0x3b, 0x17, 0x6c, 0x5a, 0x3b,
  0xff, 0xbb, 0x99, 0x3b, 0x12, 0x00, 0x00, 0x00, 0x74, 0x66, 0x6c, 0x2e,
  0x70, 0x73, 0x65, 0x75, 0x64, 0x6f, 0x5f, 0x71, 0x63, 0x6f, 0x6e, 0x73,
  0x74, 0x33, 0x00, 0x00, 0x02, 0x00, 0x00, 0x00, 0x10, 0x00, 0x00, 0x00,
  0x20, 0x00, 0x00, 0x00, 0x7e, 0xfe, 0xff, 0xff, 0x00, 0x00, 0x00, 0x01,
  0x14, 0x00, 0x00, 0x00, 0xe4, 0x00, 0x00, 0x00, 0x04, 0x00, 0x00, 0x00,
  0x00, 0x00, 0x00, 0x02, 0xf0, 0x00, 0x00, 0x00, 0xd4, 0xfd, 0xff, 0xff,
  0x08, 0x00, 0x00, 0x00, 0x88, 0x00, 0x00, 0x00, 0x10, 0x00, 0x00, 0x00,
  0x00, 0x00, 0x00, 0x00, 0x00, 0x00, 0x00, 0x00, 0x00, 0x00, 0x00, 0x00,
  0x00, 0x00, 0x00, 0x00, 0x00, 0x00, 0x00, 0x00, 0x00, 0x00, 0x00, 0x00,
  0x00, 0x00, 0x00, 0x00, 0x00, 0x00, 0x00, 0x00, 0x00, 0x00, 0x00, 0x00,
  0x00, 0x00, 0x00, 0x00, 0x00, 0x00, 0x00, 0x00, 0x00, 0x00, 0x00, 0x00,
  0x00, 0x00, 0x00, 0x00, 0x00, 0x00, 0x00, 0x00, 0x00, 0x00, 0x00, 0x00,
  0x00, 0x00, 0x00, 0x00, 0x00, 0x00, 0x00, 0x00, 0x00, 0x00, 0x00, 0x00,
  0x00, 0x00, 0x00, 0x00, 0x00, 0x00, 0x00, 0x00, 0x00, 0x00, 0x00, 0x00,
  0x00, 0x00, 0x00, 0x00, 0x00, 0x00, 0x00, 0x00, 0x00, 0x00, 0x00, 0x00,
  0x00, 0x00, 0x00, 0x00, 0x00, 0x00, 0x00, 0x00, 0x00, 0x00, 0x00, 0x00,
  0x00, 0x00, 0x00, 0x00, 0x00, 0x00, 0x00, 0x00, 0x00, 0x00, 0x00, 0x00,
  0x00, 0x00, 0x00, 0x00, 0x00, 0x00, 0x00, 0x00, 0x10, 0x00, 0x00, 0x00,
  0x3c, 0x50, 0xef, 0x38, 0x39, 0xc9, 0xf2, 0x38, 0xda, 0xcd, 0xbe, 0x38,
  0x64, 0x58, 0xd8, 0x38, 0xeb, 0x60, 0xdc, 0x38, 0xa6, 0x18, 0xe3, 0x38,
  0x75, 0xd3, 0xe6, 0x38, 0x11, 0xf9, 0xf1, 0x38, 0xb3, 0x9f, 0x19, 0x39,
  0xa9, 0x9a, 0xdd, 0x38, 0xb0, 0xfa, 0xc4, 0x38, 0x9b, 0xf8, 0xd1, 0x38,
  0x53, 0x5f, 0xb4, 0x38, 0x4d, 0x14, 0xc5, 0x38, 0x9c, 0x60, 0xb6, 0x38,
  0x53, 0x5d, 0x00, 0x39, 0x12, 0x00, 0x00, 0x00, 0x74, 0x66, 0x6c, 0x2e,
  0x70, 0x73, 0x65, 0x75, 0x64, 0x6f, 0x5f, 0x71, 0x63, 0x6f, 0x6e, 0x73,
  0x74, 0x32, 0x00, 0x00, 0x01, 0x00, 0x00, 0x00, 0x10, 0x00, 0x00, 0x00,
  0x8e, 0xff, 0xff, 0xff, 0x00, 0x00, 0x00, 0x01, 0x14, 0x00, 0x00, 0x00,
  0x40, 0x00, 0x00, 0x00, 0x03, 0x00, 0x00, 0x00, 0x00, 0x00, 0x00, 0x09,
  0x4c, 0x00, 0x00, 0x00, 0xe4, 0xfe, 0xff, 0xff, 0x08, 0x00, 0x00, 0x00,
  0x1c, 0x00, 0x00, 0x00, 0x02, 0x00, 0x00, 0x00, 0x00, 0x00, 0x00, 0x00,
  0x00, 0x00, 0x00, 0x00, 0x00, 0x00, 0x00, 0x00, 0x00, 0x00, 0x00, 0x00,
  0x00, 0x00, 0x00, 0x00, 0x02, 0x00, 0x00, 0x00, 0x13, 0xf0, 0xbf, 0x3b,
  0xdb, 0x55, 0xec, 0x3b, 0x12, 0x00, 0x00, 0x00, 0x74, 0x66, 0x6c, 0x2e,
  0x70, 0x73, 0x65, 0x75, 0x64, 0x6f, 0x5f, 0x71, 0x63, 0x6f, 0x6e, 0x73,
  0x74, 0x31, 0x00, 0x00, 0x02, 0x00, 0x00, 0x00, 0x02, 0x00, 0x00, 0x00,
  0x10, 0x00, 0x00, 0x00, 0x00, 0x00, 0x16, 0x00, 0x1c, 0x00, 0x18, 0x00,
  0x17, 0x00, 0x10, 0x00, 0x0c, 0x00, 0x08, 0x00, 0x00, 0x00, 0x00, 0x00,
  0x00, 0x00, 0x07, 0x00, 0x16, 0x00, 0x00, 0x00, 0x00, 0x00, 0x00, 0x01,
  0x14, 0x00, 0x00, 0x00, 0x40, 0x00, 0x00, 0x00, 0x02, 0x00, 0x00, 0x00,
  0x00, 0x00, 0x00, 0x02, 0x4c, 0x00, 0x00, 0x00, 0x6c, 0xff, 0xff, 0xff,
  0x08, 0x00, 0x00, 0x00, 0x1c, 0x00, 0x00, 0x00, 0x02, 0x00, 0x00, 0x00,
  0x00, 0x00, 0x00, 0x00, 0x00, 0x00, 0x00, 0x00, 0x00, 0x00, 0x00, 0x00,
  0x00, 0x00, 0x00, 0x00, 0x00, 0x00, 0x00, 0x00, 0x02, 0x00, 0x00, 0x00,
  0xce, 0x0d, 0x1c, 0x39, 0xb0, 0x26, 0x40, 0x39, 0x11, 0x00, 0x00, 0x00,
  0x74, 0x66, 0x6c, 0x2e, 0x70, 0x73, 0x65, 0x75, 0x64, 0x6f, 0x5f, 0x71,
  0x63, 0x6f, 0x6e, 0x73, 0x74, 0x00, 0x00, 0x00, 0x01, 0x00, 0x00, 0x00,
  0x02, 0x00, 0x00, 0x00, 0x00, 0x00, 0x16, 0x00, 0x20, 0x00, 0x1c, 0x00,
  0x1b, 0x00, 0x14, 0x00, 0x10, 0x00, 0x0c, 0x00, 0x00, 0x00, 0x00, 0x00,
  0x08, 0x00, 0x07, 0x00, 0x16, 0x00, 0x00, 0x00, 0x00, 0x00, 0x00, 0x01,
  0x18, 0x00, 0x00, 0x00, 0x2c, 0x00, 0x00, 0x00, 0x48, 0x00, 0x00, 0x00,
  0x01, 0x00, 0x00, 0x00, 0x00, 0x00, 0x00, 0x09, 0x60, 0x00, 0x00, 0x00,
  0x02, 0x00, 0x00, 0x00, 0xff, 0xff, 0xff, 0xff, 0x3b, 0x00, 0x00, 0x00,
  0x0c, 0x00, 0x0c, 0x00, 0x00, 0x00, 0x00, 0x00, 0x08, 0x00, 0x04, 0x00,
  0x0c, 0x00, 0x00, 0x00, 0x08, 0x00, 0x00, 0x00, 0x10, 0x00, 0x00, 0x00,
  0x01, 0x00, 0x00, 0x00, 0x03, 0x00, 0x00, 0x00, 0x00, 0x00, 0x00, 0x00,
  0x01, 0x00, 0x00, 0x00, 0x2b, 0x65, 0x1a, 0x3d, 0x1d, 0x00, 0x00, 0x00,
  0x73, 0x65, 0x72, 0x76, 0x69, 0x6e, 0x67, 0x5f, 0x64, 0x65, 0x66, 0x61,
  0x75, 0x6c, 0x74, 0x5f, 0x69, 0x6e, 0x70, 0x75, 0x74, 0x5f, 0x6c, 0x61,
  0x79, 0x65, 0x72, 0x3a, 0x30, 0x00, 0x00, 0x00, 0x02, 0x00, 0x00, 0x00,
  0x01, 0x00, 0x00, 0x00, 0x3b, 0x00, 0x00, 0x00, 0x02, 0x00, 0x00, 0x00,
  0x24, 0x00, 0x00, 0x00, 0x04, 0x00, 0x00, 0x00, 0xf0, 0xff, 0xff, 0xff,
  0x19, 0x00, 0x00, 0x00, 0x02, 0x00, 0x00, 0x00, 0x00, 0x00, 0x00, 0x19,
  0x0c, 0x00, 0x10, 0x00, 0x0f, 0x00, 0x00, 0x00, 0x08, 0x00, 0x04, 0x00,
  0x0c, 0x00, 0x00, 0x00, 0x09, 0x00, 0x00, 0x00, 0x04, 0x00, 0x00, 0x00,
  0x00, 0x00, 0x00, 0x09
};
unsigned int mlp_int8_tflite_len = 6280;
