#include <cstdint>
#include "seizure_mlp_int8_model_data.h"
const unsigned int g_seizure_mlp_int8_model_data_size = 38912;

alignas(16) const unsigned char g_seizure_mlp_int8_model_data[] = {
  0x20, 0x00, 0x00, 0x00, 0x54, 0x46, 0x4c, 0x33, 0x00, 0x00, 0x00, 0x00,
  0x14, 0x00, 0x20, 0x00, 0x1c, 0x00, 0x18, 0x00, 0x14, 0x00, 0x10, 0x00,
  0x0c, 0x00, 0x00, 0x00, 0x08, 0x00, 0x04, 0x00, 0x14, 0x00, 0x00, 0x00,
  0x1c, 0x00, 0x00, 0x00, 0x8c, 0x00, 0x00, 0x00, 0x0c, 0x01, 0x00, 0x00,
  0x28, 0x07, 0x00, 0x00, 0x38, 0x07, 0x00, 0x00, 0x80, 0x12, 0x00, 0x00,
  0x03, 0x00, 0x00, 0x00, 0x01, 0x00, 0x00, 0x00, 0x04, 0x00, 0x00, 0x00,
  0x8a, 0xf8, 0xff, 0xff, 0x0c, 0x00, 0x00, 0x00, 0x1c, 0x00, 0x00, 0x00,
  0x3c, 0x00, 0x00, 0x00, 0x0f, 0x00, 0x00, 0x00, 0x73, 0x65, 0x72, 0x76,
  0x69, 0x6e, 0x67, 0x5f, 0x64, 0x65, 0x66, 0x61, 0x75, 0x6c, 0x74, 0x00,
  0x01, 0x00, 0x00, 0x00, 0x04, 0x00, 0x00, 0x00, 0x68, 0xff, 0xff, 0xff,
  0x0a, 0x00, 0x00, 0x00, 0x04, 0x00, 0x00, 0x00, 0x08, 0x00, 0x00, 0x00,
  0x6f, 0x75, 0x74, 0x70, 0x75, 0x74, 0x5f, 0x30, 0x00, 0x00, 0x00, 0x00,
  0x01, 0x00, 0x00, 0x00, 0x04, 0x00, 0x00, 0x00, 0x5e, 0xf9, 0xff, 0xff,
  0x04, 0x00, 0x00, 0x00, 0x0d, 0x00, 0x00, 0x00, 0x69, 0x6e, 0x70, 0x75,
  0x74, 0x5f, 0x6c, 0x61, 0x79, 0x65, 0x72, 0x5f, 0x35, 0x00, 0x00, 0x00,
  0x03, 0x00, 0x00, 0x00, 0x5c, 0x00, 0x00, 0x00, 0x2c, 0x00, 0x00, 0x00,
  0x04, 0x00, 0x00, 0x00, 0xb8, 0xff, 0xff, 0xff, 0x0e, 0x00, 0x00, 0x00,
  0x04, 0x00, 0x00, 0x00, 0x13, 0x00, 0x00, 0x00, 0x43, 0x4f, 0x4e, 0x56,
  0x45, 0x52, 0x53, 0x49, 0x4f, 0x4e, 0x5f, 0x4d, 0x45, 0x54, 0x41, 0x44,
  0x41, 0x54, 0x41, 0x00, 0xdc, 0xff, 0xff, 0xff, 0x0d, 0x00, 0x00, 0x00,
  0x04, 0x00, 0x00, 0x00, 0x13, 0x00, 0x00, 0x00, 0x6d, 0x69, 0x6e, 0x5f,
  0x72, 0x75, 0x6e, 0x74, 0x69, 0x6d, 0x65, 0x5f, 0x76, 0x65, 0x72, 0x73,
  0x69, 0x6f, 0x6e, 0x00, 0x08, 0x00, 0x0c, 0x00, 0x08, 0x00, 0x04, 0x00,
  0x08, 0x00, 0x00, 0x00, 0x0c, 0x00, 0x00, 0x00, 0x04, 0x00, 0x00, 0x00,
  0x13, 0x00, 0x00, 0x00, 0x6d, 0x69, 0x6e, 0x5f, 0x72, 0x75, 0x6e, 0x74,
  0x69, 0x6d, 0x65, 0x5f, 0x76, 0x65, 0x72, 0x73, 0x69, 0x6f, 0x6e, 0x00,
  0x0f, 0x00, 0x00, 0x00, 0x18, 0x06, 0x00, 0x00, 0x10, 0x06, 0x00, 0x00,
  0xfc, 0x05, 0x00, 0x00, 0xd4, 0x05, 0x00, 0x00, 0x84, 0x05, 0x00, 0x00,
  0x74, 0x03, 0x00, 0x00, 0xe4, 0x02, 0x00, 0x00, 0xd4, 0x00, 0x00, 0x00,
  0xcc, 0x00, 0x00, 0x00, 0xc4, 0x00, 0x00, 0x00, 0xbc, 0x00, 0x00, 0x00,
  0xb4, 0x00, 0x00, 0x00, 0x94, 0x00, 0x00, 0x00, 0x74, 0x00, 0x00, 0x00,
  0x04, 0x00, 0x00, 0x00, 0x3e, 0xfa, 0xff, 0xff, 0x04, 0x00, 0x00, 0x00,
  0x60, 0x00, 0x00, 0x00, 0x0c, 0x00, 0x00, 0x00, 0x08, 0x00, 0x0e, 0x00,
  0x08, 0x00, 0x04, 0x00, 0x08, 0x00, 0x00, 0x00, 0x10, 0x00, 0x00, 0x00,
  0x28, 0x00, 0x00, 0x00, 0x00, 0x00, 0x06, 0x00, 0x08, 0x00, 0x04, 0x00,
  0x06, 0x00, 0x00, 0x00, 0x04, 0x00, 0x00, 0x00, 0x01, 0x00, 0x00, 0x00,
  0xeb, 0x03, 0x00, 0x00, 0x0c, 0x00, 0x18, 0x00, 0x14, 0x00, 0x10, 0x00,
  0x0c, 0x00, 0x04, 0x00, 0x0c, 0x00, 0x00, 0x00, 0x5a, 0xa1, 0x51, 0xfd,
  0x7d, 0x22, 0x7f, 0x10, 0x02, 0x00, 0x00, 0x00, 0x02, 0x00, 0x00, 0x00,
  0x04, 0x00, 0x00, 0x00, 0x06, 0x00, 0x00, 0x00, 0x32, 0x2e, 0x31, 0x39,
  0x2e, 0x30, 0x00, 0x00, 0xaa, 0xfa, 0xff, 0xff, 0x04, 0x00, 0x00, 0x00,
  0x10, 0x00, 0x00, 0x00, 0x00, 0x00, 0x00, 0x00, 0x00, 0x00, 0x00, 0x00,
  0x00, 0x00, 0x00, 0x00, 0x00, 0x00, 0x00, 0x00, 0xc6, 0xfa, 0xff, 0xff,
  0x04, 0x00, 0x00, 0x00, 0x10, 0x00, 0x00, 0x00, 0x31, 0x2e, 0x31, 0x34,
  0x2e, 0x30, 0x00, 0x00, 0x00, 0x00, 0x00, 0x00, 0x00, 0x00, 0x00, 0x00,
  0x20, 0xfa, 0xff, 0xff, 0x24, 0xfa, 0xff, 0xff, 0x28, 0xfa, 0xff, 0xff,
  0x2c, 0xfa, 0xff, 0xff, 0xf2, 0xfa, 0xff, 0xff, 0x04, 0x00, 0x00, 0x00,
  0x00, 0x02, 0x00, 0x00, 0x29, 0x82, 0xbf, 0xf8, 0x50, 0x94, 0x15, 0x1f,
  0xb2, 0xf1, 0x81, 0x0d, 0xc8, 0xd3, 0xf8, 0xa6, 0xf0, 0x74, 0xb4, 0x2b,
  0x15, 0xf2, 0xf7, 0x7f, 0x2b, 0x1b, 0xbe, 0x83, 0x72, 0xc6, 0x04, 0xdc,
  0x4c, 0x3e, 0x9e, 0x03, 0x31, 0x40, 0x52, 0x36, 0x61, 0x34, 0x09, 0x7f,
  0x00, 0xf1, 0x2e, 0xce, 0x53, 0x38, 0x86, 0xd3, 0x01, 0x56, 0x3f, 0x7a,
  0x67, 0x89, 0xf0, 0x96, 0x6c, 0xf0, 0x98, 0x81, 0xc6, 0xef, 0xae, 0x9e,
  0x7a, 0xde, 0xb7, 0xb1, 0x94, 0x19, 0x44, 0xab, 0xbf, 0x81, 0xb4, 0x20,
  0x6f, 0x8a, 0x4f, 0x60, 0xa6, 0x6d, 0x7f, 0x3b, 0xcc, 0xf1, 0xb5, 0x6c,
  0x70, 0x42, 0xfa, 0xcd, 0xc0, 0xd4, 0x21, 0xd5, 0x21, 0x67, 0xc5, 0x4c,
  0xc4, 0x1a, 0x0e, 0xc2, 0xbc, 0x68, 0x7f, 0xe1, 0xa0, 0xfa, 0x45, 0x36,
  0x24, 0x1c, 0xa6, 0x0f, 0xe7, 0x11, 0x3b, 0x39, 0xb0, 0xe9, 0x99, 0x7f,
  0xc6, 0x0c, 0xf2, 0xcb, 0x4d, 0x84, 0xfc, 0x87, 0x81, 0x16, 0x23, 0x2a,
  0x8f, 0x2f, 0x9e, 0x03, 0x79, 0xdd, 0x81, 0x19, 0x5f, 0x26, 0xff, 0xd8,
  0x45, 0xbd, 0xf3, 0xa4, 0x05, 0x07, 0x3e, 0x67, 0x21, 0x84, 0xfc, 0xe4,
  0xc7, 0xf3, 0xe4, 0xf9, 0x81, 0xaa, 0xa6, 0x03, 0xf7, 0x8f, 0xc5, 0xc3,
  0xca, 0x49, 0x9c, 0xec, 0x81, 0xbe, 0xaf, 0x55, 0x46, 0xb8, 0xc6, 0xd3,
  0x16, 0x51, 0x52, 0x59, 0x41, 0x57, 0x39, 0x32, 0x6d, 0x86, 0xff, 0x1c,
  0xa5, 0x5e, 0xf7, 0x5d, 0xc5, 0x4c, 0x81, 0xb7, 0x1b, 0x1d, 0x18, 0x47,
  0x9f, 0xd9, 0x5b, 0x7c, 0xf3, 0x61, 0xe6, 0x7f, 0x1a, 0xd4, 0xe9, 0x4b,
  0xef, 0xe0, 0xcd, 0x43, 0x31, 0x99, 0x05, 0xf4, 0x81, 0xcf, 0x99, 0x13,
  0xd0, 0xba, 0xed, 0xef, 0xf4, 0xa1, 0x4a, 0x57, 0x81, 0x01, 0xe2, 0x34,
  0x48, 0xfa, 0xc6, 0x9c, 0x5a, 0x52, 0xbe, 0xf9, 0x81, 0x9c, 0x4d, 0x20,
  0xbd, 0x34, 0x30, 0x65, 0x98, 0x88, 0x59, 0x47, 0x58, 0xc7, 0x44, 0x0a,
  0xec, 0x9b, 0x07, 0x9d, 0x45, 0xdd, 0xbe, 0x9d, 0xb8, 0xf0, 0xe6, 0x00,
  0x81, 0xaa, 0x73, 0xe4, 0x13, 0x10, 0x45, 0x47, 0x92, 0xc9, 0xeb, 0x64,
  0x49, 0x7f, 0x4a, 0x9c, 0x0c, 0x4d, 0x2b, 0xe8, 0x2b, 0x67, 0x2e, 0x35,
  0x7f, 0xbf, 0xfb, 0x02, 0x33, 0x29, 0x31, 0x21, 0xf5, 0xfc, 0xf0, 0xec,
  0x8f, 0xc5, 0x37, 0xf3, 0xf0, 0x19, 0x0a, 0x18, 0x71, 0x5c, 0xc9, 0x18,
  0xbd, 0x7f, 0x73, 0xcd, 0x7f, 0xa5, 0xd0, 0x63, 0x60, 0x78, 0x26, 0xd4,
  0x12, 0xc4, 0xce, 0x10, 0xae, 0xab, 0x89, 0x7f, 0x8b, 0x3e, 0x81, 0x63,
  0x8f, 0xa3, 0xa6, 0x5b, 0xf8, 0x09, 0xb9, 0x98, 0x4a, 0xc2, 0x9f, 0x26,
  0x22, 0x1c, 0x17, 0xad, 0x35, 0xcd, 0x06, 0xb0, 0x81, 0x3d, 0xe7, 0x22,
  0xe0, 0xdd, 0x23, 0xc0, 0x34, 0xc5, 0x49, 0xa6, 0xc0, 0x81, 0xd6, 0x1b,
  0xcd, 0xe9, 0x92, 0xe2, 0xf2, 0xee, 0x1a, 0xe7, 0x7b, 0x41, 0x7d, 0x1b,
  0xd5, 0xf6, 0xfd, 0x25, 0xa9, 0xb5, 0x51, 0xe2, 0xc3, 0x47, 0x81, 0x63,
  0xe6, 0x73, 0x10, 0xd0, 0xbc, 0x12, 0x9e, 0xc4, 0xd5, 0xbc, 0xbc, 0x74,
  0x52, 0xd4, 0x17, 0x7f, 0x04, 0x9b, 0x1f, 0xbe, 0xe7, 0x8c, 0xd2, 0xd9,
  0x81, 0x1a, 0x31, 0xcb, 0xbd, 0xa7, 0xde, 0xd0, 0x04, 0x77, 0x98, 0xd9,
  0xac, 0x37, 0xb1, 0x3c, 0x7f, 0xf0, 0x9c, 0xda, 0x14, 0xef, 0x47, 0x95,
  0x2e, 0xf5, 0x12, 0xe1, 0x81, 0x07, 0x45, 0xff, 0x61, 0xf6, 0xb4, 0x45,
  0xfc, 0xd8, 0x2f, 0x04, 0x2f, 0xa5, 0x42, 0x1b, 0xc6, 0xf0, 0xf9, 0xee,
  0x89, 0xad, 0xcf, 0x22, 0x81, 0xf7, 0xc7, 0x89, 0xb2, 0x53, 0x81, 0x14,
  0xa6, 0xf4, 0x38, 0x34, 0xfa, 0x1f, 0x4e, 0x26, 0x4d, 0x96, 0x87, 0xa8,
  0xfe, 0xfc, 0xff, 0xff, 0x04, 0x00, 0x00, 0x00, 0x80, 0x00, 0x00, 0x00,
  0xb4, 0xf7, 0xff, 0xff, 0xd8, 0x08, 0x00, 0x00, 0xff, 0x06, 0x00, 0x00,
  0x32, 0x0c, 0x00, 0x00, 0x3d, 0x0f, 0x00, 0x00, 0x8b, 0x06, 0x00, 0x00,
  0x3e, 0xfa, 0xff, 0xff, 0xe3, 0x0a, 0x00, 0x00, 0x0b, 0x06, 0x00, 0x00,
  0x70, 0x0d, 0x00, 0x00, 0x0c, 0xf7, 0xff, 0xff, 0xd3, 0x06, 0x00, 0x00,
  0x32, 0x05, 0x00, 0x00, 0x7a, 0x08, 0x00, 0x00, 0xb1, 0xf8, 0xff, 0xff,
  0x45, 0x09, 0x00, 0x00, 0xdc, 0x0c, 0x00, 0x00, 0x4d, 0xf3, 0xff, 0xff,
  0x2b, 0x08, 0x00, 0x00, 0x9b, 0x09, 0x00, 0x00, 0x19, 0x01, 0x00, 0x00,
  0xcb, 0x0a, 0x00, 0x00, 0xba, 0x0a, 0x00, 0x00, 0xa5, 0xf8, 0xff, 0xff,
  0x39, 0xf9, 0xff, 0xff, 0x68, 0x0b, 0x00, 0x00, 0x10, 0x04, 0x00, 0x00,
  0x4f, 0x07, 0x00, 0x00, 0x7a, 0xfe, 0xff, 0xff, 0x4b, 0x0a, 0x00, 0x00,
  0x81, 0xf5, 0xff, 0xff, 0xf8, 0x0b, 0x00, 0x00, 0x8a, 0xfd, 0xff, 0xff,
  0x04, 0x00, 0x00, 0x00, 0x00, 0x02, 0x00, 0x00, 0x14, 0xf9, 0xa4, 0xa3,
  0xd0, 0xb4, 0xdf, 0x81, 0xf0, 0xa5, 0x32, 0xbf, 0xda, 0xfd, 0x38, 0xe1,
  0xa6, 0x7f, 0xf3, 0x24, 0xda, 0x21, 0x23, 0x65, 0x6c, 0x81, 0x38, 0x50,
  0xe1, 0xef, 0x07, 0x03, 0xf3, 0x71, 0x2e, 0xdf, 0x37, 0x28, 0xde, 0x7f,
  0x5a, 0x6e, 0xcb, 0xff, 0x35, 0x21, 0xc3, 0x48, 0x28, 0xfc, 0x68, 0x34,
  0x33, 0xfc, 0x34, 0x02, 0xdf, 0xdf, 0x43, 0x3c, 0xfa, 0x08, 0xc4, 0x42,
  0x40, 0xb3, 0xc6, 0x24, 0xd8, 0x32, 0xc6, 0x81, 0x1a, 0xf4, 0x12, 0xe4,
  0x4b, 0x1c, 0xd5, 0x46, 0x15, 0x67, 0xa7, 0xc2, 0x0c, 0xb0, 0xe3, 0x28,
  0x0a, 0x15, 0x25, 0x2a, 0x47, 0xe9, 0x10, 0x37, 0x23, 0x9b, 0x8d, 0xaf,
  0x16, 0xed, 0x0f, 0xe3, 0x0b, 0xde, 0xe6, 0xcf, 0x2f, 0xd6, 0x48, 0xae,
  0xbf, 0xfe, 0x99, 0xad, 0xb8, 0x01, 0xf6, 0x5e, 0x7f, 0xb2, 0x13, 0x23,
  0x4a, 0xf0, 0x1a, 0xd9, 0xe0, 0xbc, 0x16, 0xaa, 0x07, 0x95, 0xd8, 0xb2,
  0x3c, 0xe0, 0x6b, 0xab, 0x19, 0xf1, 0x4d, 0xd9, 0x1f, 0x71, 0x2e, 0x0b,
  0xc1, 0xfb, 0x9e, 0xd5, 0x67, 0x81, 0xd2, 0x20, 0xff, 0x33, 0xe9, 0xa7,
  0x22, 0xa6, 0xfc, 0x42, 0xd0, 0x98, 0x01, 0x02, 0x0d, 0x81, 0x34, 0x12,
  0x03, 0xc1, 0xe4, 0xac, 0x9f, 0x7f, 0xce, 0x9e, 0x16, 0x0e, 0x09, 0x75,
  0x3c, 0x9c, 0xdf, 0x48, 0xbc, 0xcb, 0x23, 0x86, 0x15, 0x26, 0x26, 0x41,
  0x22, 0x16, 0xe5, 0x20, 0x4f, 0x03, 0xd2, 0x20, 0x33, 0x73, 0x07, 0x70,
  0x67, 0xf1, 0x12, 0x1c, 0xcd, 0x60, 0x48, 0xe0, 0x9b, 0x1b, 0xe0, 0x58,
  0x1c, 0x1d, 0xef, 0x7f, 0x12, 0xfc, 0x42, 0xde, 0x3b, 0x27, 0xd9, 0x06,
  0x27, 0x7f, 0xff, 0x4e, 0x16, 0xf1, 0xb6, 0x66, 0x02, 0xf6, 0x31, 0x48,
  0x20, 0x67, 0xde, 0xd2, 0x9e, 0x4c, 0x4a, 0x2f, 0x0e, 0xeb, 0xee, 0x32,
  0x12, 0x47, 0x00, 0xce, 0x71, 0x23, 0xda, 0xea, 0x44, 0x2e, 0x12, 0x1e,
  0x2c, 0x81, 0xb6, 0x02, 0x90, 0x0f, 0x27, 0xb8, 0x0c, 0x10, 0xaa, 0x68,
  0x66, 0x01, 0xe0, 0xac, 0x88, 0xb9, 0x5e, 0x09, 0xf0, 0x6d, 0x13, 0x5a,
  0x05, 0x1f, 0xf5, 0x37, 0x2f, 0x25, 0x2d, 0x23, 0x4a, 0xfe, 0xa2, 0xe0,
  0xef, 0x81, 0x4f, 0xfd, 0xee, 0x04, 0x60, 0x89, 0xe3, 0x12, 0x71, 0x49,
  0x33, 0x6f, 0x2e, 0xd5, 0x66, 0xe1, 0xb4, 0xcf, 0x0a, 0x10, 0x18, 0xf2,
  0x28, 0xd6, 0x71, 0x02, 0xbd, 0xd7, 0xe8, 0x94, 0x9e, 0xde, 0xdb, 0x08,
  0x43, 0x96, 0xb6, 0x1e, 0x2f, 0x81, 0xc2, 0x51, 0xa7, 0xe3, 0x6e, 0xc6,
  0x7f, 0xf3, 0xc1, 0xdb, 0xcc, 0xb6, 0xb8, 0xac, 0x38, 0x04, 0x71, 0x0d,
  0x09, 0x29, 0x2f, 0xf2, 0xb0, 0x60, 0x21, 0xbc, 0x2a, 0x0b, 0x9d, 0x57,
  0x3b, 0xb7, 0xb6, 0xfe, 0x8e, 0x82, 0x6b, 0x04, 0xdc, 0x4f, 0x12, 0x24,
  0x46, 0x01, 0xf7, 0x7f, 0xf7, 0x5b, 0x0a, 0x3c, 0x2c, 0xf7, 0x16, 0x3f,
  0x46, 0xc6, 0x03, 0x28, 0x4e, 0x40, 0xfd, 0x1c, 0xb2, 0x44, 0x12, 0x3b,
  0xee, 0x4b, 0xd0, 0x65, 0xcf, 0xc7, 0x4c, 0xea, 0x81, 0xb7, 0x03, 0xb4,
  0x1f, 0xae, 0xdb, 0x1e, 0x3a, 0xf0, 0xb9, 0x5d, 0x89, 0xe9, 0x29, 0x97,
  0x5d, 0xad, 0xd9, 0xe7, 0xaf, 0x1c, 0x22, 0x1f, 0xcc, 0xcb, 0x40, 0x24,
  0xcb, 0x74, 0xa8, 0x32, 0x2f, 0x4c, 0x95, 0x61, 0x27, 0xb5, 0x61, 0x61,
  0x33, 0xb1, 0xac, 0xca, 0xc2, 0x8e, 0x04, 0xc5, 0xbc, 0xd0, 0x72, 0x36,
  0x25, 0x7f, 0xb4, 0xec, 0xb3, 0x04, 0xcf, 0x35, 0x10, 0x0c, 0x3d, 0x50,
  0x5c, 0xf0, 0xee, 0x7f, 0x3e, 0xf3, 0xcf, 0x5d, 0x0b, 0x5a, 0x1d, 0x05,
  0xff, 0xaf, 0x0b, 0xed, 0xde, 0x21, 0x32, 0xc1, 0xd0, 0x6b, 0xd6, 0x3a,
  0xdd, 0x73, 0xe1, 0x13, 0x96, 0xff, 0xff, 0xff, 0x04, 0x00, 0x00, 0x00,
  0x40, 0x00, 0x00, 0x00, 0xdf, 0xf6, 0xff, 0xff, 0xd3, 0x09, 0x00, 0x00,
  0x3f, 0xf7, 0xff, 0xff, 0x35, 0xf7, 0xff, 0xff, 0x6e, 0xf7, 0xff, 0xff,
  0x04, 0xf7, 0xff, 0xff, 0x8c, 0x0e, 0x00, 0x00, 0xc0, 0x0e, 0x00, 0x00,
  0xf1, 0xf2, 0xff, 0xff, 0x5f, 0x0f, 0x00, 0x00, 0xc9, 0xf6, 0xff, 0xff,
  0x9d, 0xf3, 0xff, 0xff, 0x15, 0x0d, 0x00, 0x00, 0x31, 0xfd, 0xff, 0xff,
  0x62, 0x03, 0x00, 0x00, 0x07, 0x0a, 0x00, 0x00, 0xe2, 0xff, 0xff, 0xff,
  0x04, 0x00, 0x00, 0x00, 0x10, 0x00, 0x00, 0x00, 0xb3, 0x4f, 0xc2, 0x8f,
  0x91, 0x81, 0x32, 0x39, 0xd9, 0x15, 0x9d, 0xb7, 0x3b, 0xe2, 0x08, 0x6c,
  0x00, 0x00, 0x06, 0x00, 0x08, 0x00, 0x04, 0x00, 0x06, 0x00, 0x00, 0x00,
  0x04, 0x00, 0x00, 0x00, 0x04, 0x00, 0x00, 0x00, 0x0f, 0x03, 0x00, 0x00,
  0x54, 0xff, 0xff, 0xff, 0x58, 0xff, 0xff, 0xff, 0x0f, 0x00, 0x00, 0x00,
  0x4d, 0x4c, 0x49, 0x52, 0x20, 0x43, 0x6f, 0x6e, 0x76, 0x65, 0x72, 0x74,
  0x65, 0x64, 0x2e, 0x00, 0x01, 0x00, 0x00, 0x00, 0x14, 0x00, 0x00, 0x00,
  0x00, 0x00, 0x0e, 0x00, 0x18, 0x00, 0x14, 0x00, 0x10, 0x00, 0x0c, 0x00,
  0x08, 0x00, 0x04, 0x00, 0x0e, 0x00, 0x00, 0x00, 0x14, 0x00, 0x00, 0x00,
  0x1c, 0x00, 0x00, 0x00, 0x0c, 0x01, 0x00, 0x00, 0x10, 0x01, 0x00, 0x00,
  0x14, 0x01, 0x00, 0x00, 0x04, 0x00, 0x00, 0x00, 0x6d, 0x61, 0x69, 0x6e,
  0x00, 0x00, 0x00, 0x00, 0x04, 0x00, 0x00, 0x00, 0xb4, 0x00, 0x00, 0x00,
  0x6c, 0x00, 0x00, 0x00, 0x34, 0x00, 0x00, 0x00, 0x10, 0x00, 0x00, 0x00,
  0x00, 0x00, 0x0a, 0x00, 0x10, 0x00, 0x0c, 0x00, 0x08, 0x00, 0x04, 0x00,
  0x0a, 0x00, 0x00, 0x00, 0x0c, 0x00, 0x00, 0x00, 0x10, 0x00, 0x00, 0x00,
  0x01, 0x00, 0x00, 0x00, 0x01, 0x00, 0x00, 0x00, 0x0a, 0x00, 0x00, 0x00,
  0x01, 0x00, 0x00, 0x00, 0x09, 0x00, 0x00, 0x00, 0x96, 0xff, 0xff, 0xff,
  0x14, 0x00, 0x00, 0x00, 0x00, 0x00, 0x00, 0x08, 0x10, 0x00, 0x00, 0x00,
  0x14, 0x00, 0x00, 0x00, 0x04, 0x00, 0x04, 0x00, 0x04, 0x00, 0x00, 0x00,
  0x01, 0x00, 0x00, 0x00, 0x09, 0x00, 0x00, 0x00, 0x03, 0x00, 0x00, 0x00,
  0x08, 0x00, 0x00, 0x00, 0x02, 0x00, 0x00, 0x00, 0x01, 0x00, 0x00, 0x00,
  0xca, 0xff, 0xff, 0xff, 0x10, 0x00, 0x00, 0x00, 0x00, 0x00, 0x00, 0x08,
  0x10, 0x00, 0x00, 0x00, 0x14, 0x00, 0x00, 0x00, 0xba, 0xff, 0xff, 0xff,
  0x00, 0x00, 0x00, 0x01, 0x01, 0x00, 0x00, 0x00, 0x08, 0x00, 0x00, 0x00,
  0x03, 0x00, 0x00, 0x00, 0x07, 0x00, 0x00, 0x00, 0x04, 0x00, 0x00, 0x00,
  0x03, 0x00, 0x00, 0x00, 0x00, 0x00, 0x0e, 0x00, 0x16, 0x00, 0x00, 0x00,
  0x10, 0x00, 0x0c, 0x00, 0x0b, 0x00, 0x04, 0x00, 0x0e, 0x00, 0x00, 0x00,
  0x18, 0x00, 0x00, 0x00, 0x00, 0x00, 0x00, 0x08, 0x18, 0x00, 0x00, 0x00,
  0x1c, 0x00, 0x00, 0x00, 0x00, 0x00, 0x06, 0x00, 0x08, 0x00, 0x07, 0x00,
  0x06, 0x00, 0x00, 0x00, 0x00, 0x00, 0x00, 0x01, 0x01, 0x00, 0x00, 0x00,
  0x07, 0x00, 0x00, 0x00, 0x03, 0x00, 0x00, 0x00, 0x00, 0x00, 0x00, 0x00,
  0x06, 0x00, 0x00, 0x00, 0x05, 0x00, 0x00, 0x00, 0x01, 0x00, 0x00, 0x00,
  0x0a, 0x00, 0x00, 0x00, 0x01, 0x00, 0x00, 0x00, 0x00, 0x00, 0x00, 0x00,
  0x0b, 0x00, 0x00, 0x00, 0x80, 0x09, 0x00, 0x00, 0x08, 0x09, 0x00, 0x00,
  0x8c, 0x08, 0x00, 0x00, 0x78, 0x07, 0x00, 0x00, 0x5c, 0x06, 0x00, 0x00,
  0x88, 0x04, 0x00, 0x00, 0xac, 0x02, 0x00, 0x00, 0xe8, 0x01, 0x00, 0x00,
  0x24, 0x01, 0x00, 0x00, 0x80, 0x00, 0x00, 0x00, 0x04, 0x00, 0x00, 0x00,
  0xc2, 0xf6, 0xff, 0xff, 0x00, 0x00, 0x00, 0x01, 0x18, 0x00, 0x00, 0x00,
  0x20, 0x00, 0x00, 0x00, 0x3c, 0x00, 0x00, 0x00, 0x0b, 0x00, 0x00, 0x00,
  0x00, 0x00, 0x00, 0x09, 0x50, 0x00, 0x00, 0x00, 0x02, 0x00, 0x00, 0x00,
  0xff, 0xff, 0xff, 0xff, 0x01, 0x00, 0x00, 0x00, 0xac, 0xf6, 0xff, 0xff,
  0x08, 0x00, 0x00, 0x00, 0x10, 0x00, 0x00, 0x00, 0x01, 0x00, 0x00, 0x00,
  0x80, 0xff, 0xff, 0xff, 0xff, 0xff, 0xff, 0xff, 0x01, 0x00, 0x00, 0x00,
  0x00, 0x00, 0x80, 0x3b, 0x1b, 0x00, 0x00, 0x00, 0x53, 0x74, 0x61, 0x74,
  0x65, 0x66, 0x75, 0x6c, 0x50, 0x61, 0x72, 0x74, 0x69, 0x74, 0x69, 0x6f,
  0x6e, 0x65, 0x64, 0x43, 0x61, 0x6c, 0x6c, 0x5f, 0x31, 0x3a, 0x30, 0x00,
  0x02, 0x00, 0x00, 0x00, 0x01, 0x00, 0x00, 0x00, 0x01, 0x00, 0x00, 0x00,
  0x3a, 0xf7, 0xff, 0xff, 0x00, 0x00, 0x00, 0x01, 0x18, 0x00, 0x00, 0x00,
  0x20, 0x00, 0x00, 0x00, 0x40, 0x00, 0x00, 0x00, 0x0a, 0x00, 0x00, 0x00,
  0x00, 0x00, 0x00, 0x09, 0x78, 0x00, 0x00, 0x00, 0x02, 0x00, 0x00, 0x00,
  0xff, 0xff, 0xff, 0xff, 0x01, 0x00, 0x00, 0x00, 0x24, 0xf7, 0xff, 0xff,
  0x08, 0x00, 0x00, 0x00, 0x14, 0x00, 0x00, 0x00, 0x01, 0x00, 0x00, 0x00,
  0xdf, 0xff, 0xff, 0xff, 0xff, 0xff, 0xff, 0xff, 0x00, 0x00, 0x00, 0x00,
  0x01, 0x00, 0x00, 0x00, 0x7c, 0x78, 0xe8, 0x3d, 0x3e, 0x00, 0x00, 0x00,
  0x73, 0x65, 0x71, 0x75, 0x65, 0x6e, 0x74, 0x69, 0x61, 0x6c, 0x5f, 0x35,
  0x5f, 0x31, 0x2f, 0x64, 0x65, 0x6e, 0x73, 0x65, 0x5f, 0x31, 0x37, 0x5f,
  0x31, 0x2f, 0x4d, 0x61, 0x74, 0x4d, 0x75, 0x6c, 0x3b, 0x73, 0x65, 0x71,
  0x75, 0x65, 0x6e, 0x74, 0x69, 0x61, 0x6c, 0x5f, 0x35, 0x5f, 0x31, 0x2f,
  0x64, 0x65, 0x6e, 0x73, 0x65, 0x5f, 0x31, 0x37, 0x5f, 0x31, 0x2f, 0x41,
  0x64, 0x64, 0x00, 0x00, 0x02, 0x00, 0x00, 0x00, 0x01, 0x00, 0x00, 0x00,
  0x01, 0x00, 0x00, 0x00, 0xda, 0xf7, 0xff, 0xff, 0x00, 0x00, 0x00, 0x01,
  0x18, 0x00, 0x00, 0x00, 0x20, 0x00, 0x00, 0x00, 0x3c, 0x00, 0x00, 0x00,
  0x09, 0x00, 0x00, 0x00, 0x00, 0x00, 0x00, 0x09, 0x98, 0x00, 0x00, 0x00,
  0x02, 0x00, 0x00, 0x00, 0xff, 0xff, 0xff, 0xff, 0x10, 0x00, 0x00, 0x00,
  0xc4, 0xf7, 0xff, 0xff, 0x08, 0x00, 0x00, 0x00, 0x10, 0x00, 0x00, 0x00,
  0x01, 0x00, 0x00, 0x00, 0x80, 0xff, 0xff, 0xff, 0xff, 0xff, 0xff, 0xff,
  0x01, 0x00, 0x00, 0x00, 0xc1, 0xfa, 0x08, 0x3d, 0x61, 0x00, 0x00, 0x00,
  0x73, 0x65, 0x71, 0x75, 0x65, 0x6e, 0x74, 0x69, 0x61, 0x6c, 0x5f, 0x35,
  0x5f, 0x31, 0x2f, 0x64, 0x65, 0x6e, 0x73, 0x65, 0x5f, 0x31, 0x36, 0x5f,
  0x31, 0x2f, 0x4d, 0x61, 0x74, 0x4d, 0x75, 0x6c, 0x3b, 0x73, 0x65, 0x71,
  0x75, 0x65, 0x6e, 0x74, 0x69, 0x61, 0x6c, 0x5f, 0x35, 0x5f, 0x31, 0x2f,
  0x64, 0x65, 0x6e, 0x73, 0x65, 0x5f, 0x31, 0x36, 0x5f, 0x31, 0x2f, 0x52,
  0x65, 0x6c, 0x75, 0x3b, 0x73, 0x65, 0x71, 0x75, 0x65, 0x6e, 0x74, 0x69,
  0x61, 0x6c, 0x5f, 0x35, 0x5f, 0x31, 0x2f, 0x64, 0x65, 0x6e, 0x73, 0x65,
  0x5f, 0x31, 0x36, 0x5f, 0x31, 0x2f, 0x42, 0x69, 0x61, 0x73, 0x41, 0x64,
  0x64, 0x00, 0x00, 0x00, 0x02, 0x00, 0x00, 0x00, 0x01, 0x00, 0x00, 0x00,
  0x10, 0x00, 0x00, 0x00, 0x9a, 0xf8, 0xff, 0xff, 0x00, 0x00, 0x00, 0x01,
  0x18, 0x00, 0x00, 0x00, 0x20, 0x00, 0x00, 0x00, 0x3c, 0x00, 0x00, 0x00,
  0x08, 0x00, 0x00, 0x00, 0x00, 0x00, 0x00, 0x09, 0x98, 0x00, 0x00, 0x00,
  0x02, 0x00, 0x00, 0x00, 0xff, 0xff, 0xff, 0xff, 0x20, 0x00, 0x00, 0x00,
  0x84, 0xf8, 0xff, 0xff, 0x08, 0x00, 0x00, 0x00, 0x10, 0x00, 0x00, 0x00,
  0x01, 0x00, 0x00, 0x00, 0x80, 0xff, 0xff, 0xff, 0xff, 0xff, 0xff, 0xff,
  0x01, 0x00, 0x00, 0x00, 0x5d, 0xdc, 0x97, 0x3c, 0x61, 0x00, 0x00, 0x00,
  0x73, 0x65, 0x71, 0x75, 0x65, 0x6e, 0x74, 0x69, 0x61, 0x6c, 0x5f, 0x35,
  0x5f, 0x31, 0x2f, 0x64, 0x65, 0x6e, 0x73, 0x65, 0x5f, 0x31, 0x35, 0x5f,
  0x31, 0x2f, 0x4d, 0x61, 0x74, 0x4d, 0x75, 0x6c, 0x3b, 0x73, 0x65, 0x71,
  0x75, 0x65, 0x6e, 0x74, 0x69, 0x61, 0x6c, 0x5f, 0x35, 0x5f, 0x31, 0x2f,
  0x64, 0x65, 0x6e, 0x73, 0x65, 0x5f, 0x31, 0x35, 0x5f, 0x31, 0x2f, 0x52,
  0x65, 0x6c, 0x75, 0x3b, 0x73, 0x65, 0x71, 0x75, 0x65, 0x6e, 0x74, 0x69,
  0x61, 0x6c, 0x5f, 0x35, 0x5f, 0x31, 0x2f, 0x64, 0x65, 0x6e, 0x73, 0x65,
  0x5f, 0x31, 0x35, 0x5f, 0x31, 0x2f, 0x42, 0x69, 0x61, 0x73, 0x41, 0x64,
  0x64, 0x00, 0x00, 0x00, 0x02, 0x00, 0x00, 0x00, 0x01, 0x00, 0x00, 0x00,
  0x20, 0x00, 0x00, 0x00, 0xce, 0xf9, 0xff, 0xff, 0x00, 0x00, 0x00, 0x01,
  0x14, 0x00, 0x00, 0x00, 0xa8, 0x01, 0x00, 0x00, 0x07, 0x00, 0x00, 0x00,
  0x00, 0x00, 0x00, 0x09, 0xb4, 0x01, 0x00, 0x00, 0x34, 0xf9, 0xff, 0xff,
  0x08, 0x00, 0x00, 0x00, 0x0c, 0x01, 0x00, 0x00, 0x20, 0x00, 0x00, 0x00,
  0x00, 0x00, 0x00, 0x00, 0x00, 0x00, 0x00, 0x00, 0x00, 0x00, 0x00, 0x00,
  0x00, 0x00, 0x00, 0x00, 0x00, 0x00, 0x00, 0x00, 0x00, 0x00, 0x00, 0x00,
  0x00, 0x00, 0x00, 0x00, 0x00, 0x00, 0x00, 0x00, 0x00, 0x00, 0x00, 0x00,
  0x00, 0x00, 0x00, 0x00, 0x00, 0x00, 0x00, 0x00, 0x00, 0x00, 0x00, 0x00,
  0x00, 0x00, 0x00, 0x00, 0x00, 0x00, 0x00, 0x00, 0x00, 0x00, 0x00, 0x00,
  0x00, 0x00, 0x00, 0x00, 0x00, 0x00, 0x00, 0x00, 0x00, 0x00, 0x00, 0x00,
  0x00, 0x00, 0x00, 0x00, 0x00, 0x00, 0x00, 0x00, 0x00, 0x00, 0x00, 0x00,
  0x00, 0x00, 0x00, 0x00, 0x00, 0x00, 0x00, 0x00, 0x00, 0x00, 0x00, 0x00,
  0x00, 0x00, 0x00, 0x00, 0x00, 0x00, 0x00, 0x00, 0x00, 0x00, 0x00, 0x00,
  0x00, 0x00, 0x00, 0x00, 0x00, 0x00, 0x00, 0x00, 0x00, 0x00, 0x00, 0x00,
  0x00, 0x00, 0x00, 0x00, 0x00, 0x00, 0x00, 0x00, 0x00, 0x00, 0x00, 0x00,
  0x00, 0x00, 0x00, 0x00, 0x00, 0x00, 0x00, 0x00, 0x00, 0x00, 0x00, 0x00,
  0x00, 0x00, 0x00, 0x00, 0x00, 0x00, 0x00, 0x00, 0x00, 0x00, 0x00, 0x00,
  0x00, 0x00, 0x00, 0x00, 0x00, 0x00, 0x00, 0x00, 0x00, 0x00, 0x00, 0x00,
  0x00, 0x00, 0x00, 0x00, 0x00, 0x00, 0x00, 0x00, 0x00, 0x00, 0x00, 0x00,
  0x00, 0x00, 0x00, 0x00, 0x00, 0x00, 0x00, 0x00, 0x00, 0x00, 0x00, 0x00,
  0x00, 0x00, 0x00, 0x00, 0x00, 0x00, 0x00, 0x00, 0x00, 0x00, 0x00, 0x00,
  0x00, 0x00, 0x00, 0x00, 0x00, 0x00, 0x00, 0x00, 0x00, 0x00, 0x00, 0x00,
  0x00, 0x00, 0x00, 0x00, 0x00, 0x00, 0x00, 0x00, 0x00, 0x00, 0x00, 0x00,
  0x00, 0x00, 0x00, 0x00, 0x00, 0x00, 0x00, 0x00, 0x00, 0x00, 0x00, 0x00,
  0x00, 0x00, 0x00, 0x00, 0x00, 0x00, 0x00, 0x00, 0x00, 0x00, 0x00, 0x00,
  0x00, 0x00, 0x00, 0x00, 0x00, 0x00, 0x00, 0x00, 0x20, 0x00, 0x00, 0x00,
  0x49, 0x39, 0x62, 0x3b, 0x7e, 0xc9, 0x60, 0x3b, 0x1a, 0x8b, 0x75, 0x3b,
  0x14, 0xe3, 0x28, 0x3b, 0x72, 0x07, 0x1a, 0x3b, 0xcc, 0x9e, 0x25, 0x3b,
  0xeb, 0x49, 0x54, 0x3b, 0x16, 0xf5, 0x71, 0x3b, 0xc2, 0x72, 0x6e, 0x3b,
  0x6d, 0xc7, 0x6e, 0x3b, 0x1c, 0x74, 0x55, 0x3b, 0xa4, 0x4c, 0x77, 0x3b,
  0xc9, 0x25, 0x35, 0x3b, 0xd5, 0xb8, 0x50, 0x3b, 0xbc, 0xd0, 0x67, 0x3b,
  0x21, 0x51, 0x60, 0x3b, 0x73, 0x41, 0x4b, 0x3b, 0x0e, 0x56, 0x44, 0x3b,
  0x1a, 0x10, 0x78, 0x3b, 0x0e, 0xd1, 0x72, 0x3b, 0x87, 0x78, 0x2b, 0x3b,
  0x71, 0x5f, 0x28, 0x3b, 0xd0, 0xff, 0x5b, 0x3b, 0xe5, 0xbb, 0x83, 0x3b,
  0x13, 0xfd, 0x81, 0x3b, 0x23, 0xbe, 0x7f, 0x3b, 0x15, 0x0e, 0x37, 0x3b,
  0x8a, 0xb5, 0x91, 0x3b, 0xf0, 0x13, 0x2a, 0x3b, 0x66, 0x0e, 0x75, 0x3b,
  0x26, 0x3d, 0x59, 0x3b, 0xc1, 0x8d, 0x58, 0x3b, 0x12, 0x00, 0x00, 0x00,
  0x74, 0x66, 0x6c, 0x2e, 0x70, 0x73, 0x65, 0x75, 0x64, 0x6f, 0x5f, 0x71,
  0x63, 0x6f, 0x6e, 0x73, 0x74, 0x35, 0x00, 0x00, 0x02, 0x00, 0x00, 0x00,
  0x20, 0x00, 0x00, 0x00, 0x10, 0x00, 0x00, 0x00, 0xa6, 0xfb, 0xff, 0xff,
  0x00, 0x00, 0x00, 0x01, 0x14, 0x00, 0x00, 0x00, 0xa4, 0x01, 0x00, 0x00,
  0x06, 0x00, 0x00, 0x00, 0x00, 0x00, 0x00, 0x02, 0xb0, 0x01, 0x00, 0x00,
  0x0c, 0xfb, 0xff, 0xff, 0x08, 0x00, 0x00, 0x00, 0x08, 0x01, 0x00, 0x00,
  0x20, 0x00, 0x00, 0x00, 0x00, 0x00, 0x00, 0x00, 0x00, 0x00, 0x00, 0x00,
  0x00, 0x00, 0x00, 0x00, 0x00, 0x00, 0x00, 0x00, 0x00, 0x00, 0x00, 0x00,
  0x00, 0x00, 0x00, 0x00, 0x00, 0x00, 0x00, 0x00, 0x00, 0x00, 0x00, 0x00,
  0x00, 0x00, 0x00, 0x00, 0x00, 0x00, 0x00, 0x00, 0x00, 0x00, 0x00, 0x00,
  0x00, 0x00, 0x00, 0x00, 0x00, 0x00, 0x00, 0x00, 0x00, 0x00, 0x00, 0x00,
  0x00, 0x00, 0x00, 0x00, 0x00, 0x00, 0x00, 0x00, 0x00, 0x00, 0x00, 0x00,
  0x00, 0x00, 0x00, 0x00, 0x00, 0x00, 0x00, 0x00, 0x00, 0x00, 0x00, 0x00,
  0x00, 0x00, 0x00, 0x00, 0x00, 0x00, 0x00, 0x00, 0x00, 0x00, 0x00, 0x00,
  0x00, 0x00, 0x00, 0x00, 0x00, 0x00, 0x00, 0x00, 0x00, 0x00, 0x00, 0x00,
  0x00, 0x00, 0x00, 0x00, 0x00, 0x00, 0x00, 0x00, 0x00, 0x00, 0x00, 0x00,
  0x00, 0x00, 0x00, 0x00, 0x00, 0x00, 0x00, 0x00, 0x00, 0x00, 0x00, 0x00,
  0x00, 0x00, 0x00, 0x00, 0x00, 0x00, 0x00, 0x00, 0x00, 0x00, 0x00, 0x00,
  0x00, 0x00, 0x00, 0x00, 0x00, 0x00, 0x00, 0x00, 0x00, 0x00, 0x00, 0x00,
  0x00, 0x00, 0x00, 0x00, 0x00, 0x00, 0x00, 0x00, 0x00, 0x00, 0x00, 0x00,
  0x00, 0x00, 0x00, 0x00, 0x00, 0x00, 0x00, 0x00, 0x00, 0x00, 0x00, 0x00,
  0x00, 0x00, 0x00, 0x00, 0x00, 0x00, 0x00, 0x00, 0x00, 0x00, 0x00, 0x00,
  0x00, 0x00, 0x00, 0x00, 0x00, 0x00, 0x00, 0x00, 0x00, 0x00, 0x00, 0x00,
  0x00, 0x00, 0x00, 0x00, 0x00, 0x00, 0x00, 0x00, 0x00, 0x00, 0x00, 0x00,
  0x00, 0x00, 0x00, 0x00, 0x00, 0x00, 0x00, 0x00, 0x00, 0x00, 0x00, 0x00,
  0x00, 0x00, 0x00, 0x00, 0x00, 0x00, 0x00, 0x00, 0x00, 0x00, 0x00, 0x00,
  0x00, 0x00, 0x00, 0x00, 0x00, 0x00, 0x00, 0x00, 0x00, 0x00, 0x00, 0x00,
  0x00, 0x00, 0x00, 0x00, 0x00, 0x00, 0x00, 0x00, 0x20, 0x00, 0x00, 0x00,
  0x4d, 0x6a, 0xd8, 0x38, 0x74, 0x0a, 0xd7, 0x38, 0xad, 0xe5, 0xea, 0x38,
  0x82, 0x90, 0xa1, 0x38, 0xca, 0x59, 0x93, 0x38, 0x7c, 0x70, 0x9e, 0x38,
  0x9b, 0x15, 0xcb, 0x38, 0x77, 0x77, 0xe7, 0x38, 0x16, 0x1c, 0xe4, 0x38,
  0x15, 0x6d, 0xe4, 0x38, 0xde, 0x32, 0xcc, 0x38, 0xba, 0x93, 0xec, 0x38,
  0x20, 0x4b, 0xad, 0x38, 0x1c, 0xac, 0xc7, 0x38, 0xaf, 0xc3, 0xdd, 0x38,
  0x4f, 0x97, 0xd6, 0x38, 0x66, 0x71, 0xc2, 0x38, 0xcf, 0xd2, 0xbb, 0x38,
  0xb6, 0x4e, 0xed, 0x38, 0xe5, 0x49, 0xe8, 0x38, 0x47, 0x09, 0xa4, 0x38,
  0x94, 0x12, 0xa1, 0x38, 0xeb, 0x75, 0xd2, 0x38, 0x69, 0x0b, 0xfc, 0x38,
  0x84, 0xb4, 0xf8, 0x38, 0x81, 0xa7, 0xf4, 0x38, 0x40, 0x1e, 0xaf, 0x38,
  0x3b, 0x64, 0x0b, 0x39, 0x26, 0xb4, 0xa2, 0x38, 0x62, 0x6e, 0xea, 0x38,
  0xe4, 0xd1, 0xcf, 0x38, 0x1a, 0x2a, 0xcf, 0x38, 0x12, 0x00, 0x00, 0x00,
  0x74, 0x66, 0x6c, 0x2e, 0x70, 0x73, 0x65, 0x75, 0x64, 0x6f, 0x5f, 0x71,
  0x63, 0x6f, 0x6e, 0x73, 0x74, 0x34, 0x00, 0x00, 0x01, 0x00, 0x00, 0x00,
  0x20, 0x00, 0x00, 0x00, 0x76, 0xfd, 0xff, 0xff, 0x00, 0x00, 0x00, 0x01,
  0x14, 0x00, 0x00, 0x00, 0xe8, 0x00, 0x00, 0x00, 0x05, 0x00, 0x00, 0x00,
  0x00, 0x00, 0x00, 0x09, 0xf4, 0x00, 0x00, 0x00, 0xdc, 0xfc, 0xff, 0xff,
  0x08, 0x00, 0x00, 0x00, 0x8c, 0x00, 0x00, 0x00, 0x10, 0x00, 0x00, 0x00,
  0x00, 0x00, 0x00, 0x00, 0x00, 0x00, 0x00, 0x00, 0x00, 0x00, 0x00, 0x00,
  0x00, 0x00, 0x00, 0x00, 0x00, 0x00, 0x00, 0x00, 0x00, 0x00, 0x00, 0x00,
  0x00, 0x00, 0x00, 0x00, 0x00, 0x00, 0x00, 0x00, 0x00, 0x00, 0x00, 0x00,
  0x00, 0x00, 0x00, 0x00, 0x00, 0x00, 0x00, 0x00, 0x00, 0x00, 0x00, 0x00,
  0x00, 0x00, 0x00, 0x00, 0x00, 0x00, 0x00, 0x00, 0x00, 0x00, 0x00, 0x00,
  0x00, 0x00, 0x00, 0x00, 0x00, 0x00, 0x00, 0x00, 0x00, 0x00, 0x00, 0x00,
  0x00, 0x00, 0x00, 0x00, 0x00, 0x00, 0x00, 0x00, 0x00, 0x00, 0x00, 0x00,
  0x00, 0x00, 0x00, 0x00, 0x00, 0x00, 0x00, 0x00, 0x00, 0x00, 0x00, 0x00,
  0x00, 0x00, 0x00, 0x00, 0x00, 0x00, 0x00, 0x00, 0x00, 0x00, 0x00, 0x00,
  0x00, 0x00, 0x00, 0x00, 0x00, 0x00, 0x00, 0x00, 0x00, 0x00, 0x00, 0x00,
  0x00, 0x00, 0x00, 0x00, 0x00, 0x00, 0x00, 0x00, 0x00, 0x00, 0x00, 0x00,
  0x10, 0x00, 0x00, 0x00, 0xfe, 0xb0, 0x8b, 0x3b, 0xc5, 0x4d, 0x8a, 0x3b,
  0xed, 0x2b, 0x7c, 0x3b, 0x10, 0x78, 0x89, 0x3b, 0xd4, 0x35, 0x90, 0x3b,
  0x43, 0x78, 0x74, 0x3b, 0xeb, 0x4a, 0x98, 0x3b, 0x67, 0x3b, 0x7a, 0x3b,
  0x0d, 0x85, 0x2e, 0x3b, 0xd2, 0xd6, 0x88, 0x3b, 0x2f, 0xd0, 0x8c, 0x3b,
  0x0c, 0x35, 0x63, 0x3b, 0xf1, 0x4d, 0xb2, 0x3b, 0xbc, 0x9f, 0x4f, 0x3b,
  0xee, 0x50, 0x33, 0x3b, 0x6e, 0xcc, 0x96, 0x3b, 0x12, 0x00, 0x00, 0x00,
  0x74, 0x66, 0x6c, 0x2e, 0x70, 0x73, 0x65, 0x75, 0x64, 0x6f, 0x5f, 0x71,
  0x63, 0x6f, 0x6e, 0x73, 0x74, 0x33, 0x00, 0x00, 0x02, 0x00, 0x00, 0x00,
  0x10, 0x00, 0x00, 0x00, 0x20, 0x00, 0x00, 0x00, 0x8e, 0xfe, 0xff, 0xff,
  0x00, 0x00, 0x00, 0x01, 0x14, 0x00, 0x00, 0x00, 0xe4, 0x00, 0x00, 0x00,
  0x04, 0x00, 0x00, 0x00, 0x00, 0x00, 0x00, 0x02, 0xf0, 0x00, 0x00, 0x00,
  0xf4, 0xfd, 0xff, 0xff, 0x08, 0x00, 0x00, 0x00, 0x88, 0x00, 0x00, 0x00,
  0x10, 0x00, 0x00, 0x00, 0x00, 0x00, 0x00, 0x00, 0x00, 0x00, 0x00, 0x00,
  0x00, 0x00, 0x00, 0x00, 0x00, 0x00, 0x00, 0x00, 0x00, 0x00, 0x00, 0x00,
  0x00, 0x00, 0x00, 0x00, 0x00, 0x00, 0x00, 0x00, 0x00, 0x00, 0x00, 0x00,
  0x00, 0x00, 0x00, 0x00, 0x00, 0x00, 0x00, 0x00, 0x00, 0x00, 0x00, 0x00,
  0x00, 0x00, 0x00, 0x00, 0x00, 0x00, 0x00, 0x00, 0x00, 0x00, 0x00, 0x00,
  0x00, 0x00, 0x00, 0x00, 0x00, 0x00, 0x00, 0x00, 0x00, 0x00, 0x00, 0x00,
  0x00, 0x00, 0x00, 0x00, 0x00, 0x00, 0x00, 0x00, 0x00, 0x00, 0x00, 0x00,
  0x00, 0x00, 0x00, 0x00, 0x00, 0x00, 0x00, 0x00, 0x00, 0x00, 0x00, 0x00,
  0x00, 0x00, 0x00, 0x00, 0x00, 0x00, 0x00, 0x00, 0x00, 0x00, 0x00, 0x00,
  0x00, 0x00, 0x00, 0x00, 0x00, 0x00, 0x00, 0x00, 0x00, 0x00, 0x00, 0x00,
  0x00, 0x00, 0x00, 0x00, 0x00, 0x00, 0x00, 0x00, 0x00, 0x00, 0x00, 0x00,
  0x10, 0x00, 0x00, 0x00, 0x49, 0xbb, 0xa5, 0x38, 0xd9, 0x15, 0xa4, 0x38,
  0xfa, 0x96, 0x95, 0x38, 0x4d, 0x18, 0xa3, 0x38, 0xc5, 0x17, 0xab, 0x38,
  0x60, 0x05, 0x91, 0x38, 0x91, 0xae, 0xb4, 0x38, 0x70, 0x70, 0x94, 0x38,
  0x69, 0x0d, 0x4f, 0x38, 0x00, 0x59, 0xa2, 0x38, 0x04, 0x10, 0xa7, 0x38,
  0xde, 0xc7, 0x86, 0x38, 0xea, 0x8a, 0xd3, 0x38, 0xe1, 0x53, 0x76, 0x38,
  0x2e, 0xbe, 0x54, 0x38, 0xc7, 0xe8, 0xb2, 0x38, 0x12, 0x00, 0x00, 0x00,
  0x74, 0x66, 0x6c, 0x2e, 0x70, 0x73, 0x65, 0x75, 0x64, 0x6f, 0x5f, 0x71,
  0x63, 0x6f, 0x6e, 0x73, 0x74, 0x32, 0x00, 0x00, 0x01, 0x00, 0x00, 0x00,
  0x10, 0x00, 0x00, 0x00, 0x9e, 0xff, 0xff, 0xff, 0x00, 0x00, 0x00, 0x01,
  0x14, 0x00, 0x00, 0x00, 0x30, 0x00, 0x00, 0x00, 0x03, 0x00, 0x00, 0x00,
  0x00, 0x00, 0x00, 0x09, 0x3c, 0x00, 0x00, 0x00, 0x04, 0xff, 0xff, 0xff,
  0x08, 0x00, 0x00, 0x00, 0x10, 0x00, 0x00, 0x00, 0x01, 0x00, 0x00, 0x00,
  0x00, 0x00, 0x00, 0x00, 0x00, 0x00, 0x00, 0x00, 0x01, 0x00, 0x00, 0x00,
  0xfc, 0xfa, 0xef, 0x3b, 0x12, 0x00, 0x00, 0x00, 0x74, 0x66, 0x6c, 0x2e,
  0x70, 0x73, 0x65, 0x75, 0x64, 0x6f, 0x5f, 0x71, 0x63, 0x6f, 0x6e, 0x73,
  0x74, 0x31, 0x00, 0x00, 0x02, 0x00, 0x00, 0x00, 0x01, 0x00, 0x00, 0x00,
  0x10, 0x00, 0x00, 0x00, 0x00, 0x00, 0x16, 0x00, 0x1c, 0x00, 0x18, 0x00,
  0x17, 0x00, 0x10, 0x00, 0x0c, 0x00, 0x08, 0x00, 0x00, 0x00, 0x00, 0x00,
  0x00, 0x00, 0x07, 0x00, 0x16, 0x00, 0x00, 0x00, 0x00, 0x00, 0x00, 0x01,
  0x14, 0x00, 0x00, 0x00, 0x30, 0x00, 0x00, 0x00, 0x02, 0x00, 0x00, 0x00,
  0x00, 0x00, 0x00, 0x02, 0x3c, 0x00, 0x00, 0x00, 0x7c, 0xff, 0xff, 0xff,
  0x08, 0x00, 0x00, 0x00, 0x10, 0x00, 0x00, 0x00, 0x01, 0x00, 0x00, 0x00,
  0x00, 0x00, 0x00, 0x00, 0x00, 0x00, 0x00, 0x00, 0x01, 0x00, 0x00, 0x00,
  0x66, 0x68, 0x80, 0x39, 0x11, 0x00, 0x00, 0x00, 0x74, 0x66, 0x6c, 0x2e,
  0x70, 0x73, 0x65, 0x75, 0x64, 0x6f, 0x5f, 0x71, 0x63, 0x6f, 0x6e, 0x73,
  0x74, 0x00, 0x00, 0x00, 0x01, 0x00, 0x00, 0x00, 0x01, 0x00, 0x00, 0x00,
  0x00, 0x00, 0x16, 0x00, 0x20, 0x00, 0x1c, 0x00, 0x1b, 0x00, 0x14, 0x00,
  0x10, 0x00, 0x0c, 0x00, 0x00, 0x00, 0x00, 0x00, 0x08, 0x00, 0x07, 0x00,
  0x16, 0x00, 0x00, 0x00, 0x00, 0x00, 0x00, 0x01, 0x18, 0x00, 0x00, 0x00,
  0x2c, 0x00, 0x00, 0x00, 0x48, 0x00, 0x00, 0x00, 0x01, 0x00, 0x00, 0x00,
  0x00, 0x00, 0x00, 0x09, 0x60, 0x00, 0x00, 0x00, 0x02, 0x00, 0x00, 0x00,
  0xff, 0xff, 0xff, 0xff, 0x10, 0x00, 0x00, 0x00, 0x0c, 0x00, 0x0c, 0x00,
  0x00, 0x00, 0x00, 0x00, 0x08, 0x00, 0x04, 0x00, 0x0c, 0x00, 0x00, 0x00,
  0x08, 0x00, 0x00, 0x00, 0x10, 0x00, 0x00, 0x00, 0x01, 0x00, 0x00, 0x00,
  0x13, 0x00, 0x00, 0x00, 0x00, 0x00, 0x00, 0x00, 0x01, 0x00, 0x00, 0x00,
  0x83, 0xe6, 0xf4, 0x3c, 0x1f, 0x00, 0x00, 0x00, 0x73, 0x65, 0x72, 0x76,
  0x69, 0x6e, 0x67, 0x5f, 0x64, 0x65, 0x66, 0x61, 0x75, 0x6c, 0x74, 0x5f,
  0x69, 0x6e, 0x70, 0x75, 0x74, 0x5f, 0x6c, 0x61, 0x79, 0x65, 0x72, 0x5f,
  0x35, 0x3a, 0x30, 0x00, 0x02, 0x00, 0x00, 0x00, 0x01, 0x00, 0x00, 0x00,
  0x10, 0x00, 0x00, 0x00, 0x02, 0x00, 0x00, 0x00, 0x24, 0x00, 0x00, 0x00,
  0x04, 0x00, 0x00, 0x00, 0xf0, 0xff, 0xff, 0xff, 0x0e, 0x00, 0x00, 0x00,
  0x02, 0x00, 0x00, 0x00, 0x00, 0x00, 0x00, 0x0e, 0x0c, 0x00, 0x10, 0x00,
  0x0f, 0x00, 0x00, 0x00, 0x08, 0x00, 0x04, 0x00, 0x0c, 0x00, 0x00, 0x00,
  0x09, 0x00, 0x00, 0x00, 0x04, 0x00, 0x00, 0x00, 0x00, 0x00, 0x00, 0x09
};
unsigned int seizure_mlp_int8_tflite_len = 4848;
